#pragma once

// Auto-generated from: dnn3_int8.tflite
// Size: 9584 bytes

alignas(16) const unsigned char model_data[] = {
  0x1c, 0x00, 0x00, 0x00, 0x54, 0x46, 0x4c, 0x33, 0x14, 0x00, 0x20, 0x00, 
  0x1c, 0x00, 0x18, 0x00, 0x14, 0x00, 0x10, 0x00, 0x0c, 0x00, 0x00, 0x00, 
  0x08, 0x00, 0x04, 0x00, 0x14, 0x00, 0x00, 0x00, 0x1c, 0x00, 0x00, 0x00, 
  0x94, 0x00, 0x00, 0x00, 0xec, 0x00, 0x00, 0x00, 0x88, 0x14, 0x00, 0x00, 
  0x98, 0x14, 0x00, 0x00, 0x04, 0x25, 0x00, 0x00, 0x03, 0x00, 0x00, 0x00, 
  0x01, 0x00, 0x00, 0x00, 0x10, 0x00, 0x00, 0x00, 0x00, 0x00, 0x0a, 0x00, 
  0x10, 0x00, 0x0c, 0x00, 0x08, 0x00, 0x04, 0x00, 0x0a, 0x00, 0x00, 0x00, 
  0x0c, 0x00, 0x00, 0x00, 0x1c, 0x00, 0x00, 0x00, 0x3c, 0x00, 0x00, 0x00, 
  0x0f, 0x00, 0x00, 0x00, 0x73, 0x65, 0x72, 0x76, 0x69, 0x6e, 0x67, 0x5f, 
  0x64, 0x65, 0x66, 0x61, 0x75, 0x6c, 0x74, 0x00, 0x01, 0x00, 0x00, 0x00, 
  0x04, 0x00, 0x00, 0x00, 0x94, 0xff, 0xff, 0xff, 0x0a, 0x00, 0x00, 0x00, 
  0x04, 0x00, 0x00, 0x00, 0x08, 0x00, 0x00, 0x00, 0x6f, 0x75, 0x74, 0x70, 
  0x75, 0x74, 0x5f, 0x30, 0x00, 0x00, 0x00, 0x00, 0x01, 0x00, 0x00, 0x00, 
  0x04, 0x00, 0x00, 0x00, 0x5e, 0xeb, 0xff, 0xff, 0x04, 0x00, 0x00, 0x00, 
  0x08, 0x00, 0x00, 0x00, 0x66, 0x65, 0x61, 0x74, 0x75, 0x72, 0x65, 0x73, 
  0x00, 0x00, 0x00, 0x00, 0x02, 0x00, 0x00, 0x00, 0x34, 0x00, 0x00, 0x00, 
  0x04, 0x00, 0x00, 0x00, 0xdc, 0xff, 0xff, 0xff, 0x0d, 0x00, 0x00, 0x00, 
  0x04, 0x00, 0x00, 0x00, 0x13, 0x00, 0x00, 0x00, 0x43, 0x4f, 0x4e, 0x56, 
  0x45, 0x52, 0x53, 0x49, 0x4f, 0x4e, 0x5f, 0x4d, 0x45, 0x54, 0x41, 0x44, 
  0x41, 0x54, 0x41, 0x00, 0x08, 0x00, 0x0c, 0x00, 0x08, 0x00, 0x04, 0x00, 
  0x08, 0x00, 0x00, 0x00, 0x0c, 0x00, 0x00, 0x00, 0x04, 0x00, 0x00, 0x00, 
  0x13, 0x00, 0x00, 0x00, 0x6d, 0x69, 0x6e, 0x5f, 0x72, 0x75, 0x6e, 0x74, 
  0x69, 0x6d, 0x65, 0x5f, 0x76, 0x65, 0x72, 0x73, 0x69, 0x6f, 0x6e, 0x00, 
  0x0e, 0x00, 0x00, 0x00, 0x98, 0x13, 0x00, 0x00, 0x90, 0x13, 0x00, 0x00, 
  0x64, 0x13, 0x00, 0x00, 0x74, 0x12, 0x00, 0x00, 0xe4, 0x11, 0x00, 0x00, 
  0xd4, 0x09, 0x00, 0x00, 0xc4, 0x08, 0x00, 0x00, 0xb4, 0x00, 0x00, 0x00, 
  0xac, 0x00, 0x00, 0x00, 0xa4, 0x00, 0x00, 0x00, 0x9c, 0x00, 0x00, 0x00, 
  0x94, 0x00, 0x00, 0x00, 0x74, 0x00, 0x00, 0x00, 0x04, 0x00, 0x00, 0x00, 
  0x0e, 0xec, 0xff, 0xff, 0x04, 0x00, 0x00, 0x00, 0x60, 0x00, 0x00, 0x00, 
  0x0c, 0x00, 0x00, 0x00, 0x08, 0x00, 0x0e, 0x00, 0x08, 0x00, 0x04, 0x00, 
  0x08, 0x00, 0x00, 0x00, 0x10, 0x00, 0x00, 0x00, 0x28, 0x00, 0x00, 0x00, 
  0x00, 0x00, 0x06, 0x00, 0x08, 0x00, 0x04, 0x00, 0x06, 0x00, 0x00, 0x00, 
  0x04, 0x00, 0x00, 0x00, 0x01, 0x00, 0x00, 0x00, 0xeb, 0x03, 0x00, 0x00, 
  0x0c, 0x00, 0x18, 0x00, 0x14, 0x00, 0x10, 0x00, 0x0c, 0x00, 0x04, 0x00, 
  0x0c, 0x00, 0x00, 0x00, 0x1f, 0x95, 0x76, 0x4e, 0x8c, 0x29, 0x6d, 0xad, 
  0x02, 0x00, 0x00, 0x00, 0x02, 0x00, 0x00, 0x00, 0x04, 0x00, 0x00, 0x00, 
  0x06, 0x00, 0x00, 0x00, 0x32, 0x2e, 0x32, 0x30, 0x2e, 0x30, 0x00, 0x00, 
  0x7a, 0xec, 0xff, 0xff, 0x04, 0x00, 0x00, 0x00, 0x10, 0x00, 0x00, 0x00, 
  0x31, 0x2e, 0x31, 0x34, 0x2e, 0x30, 0x00, 0x00, 0x00, 0x00, 0x00, 0x00, 
  0x00, 0x00, 0x00, 0x00, 0x64, 0xec, 0xff, 0xff, 0x68, 0xec, 0xff, 0xff, 
  0x6c, 0xec, 0xff, 0xff, 0x70, 0xec, 0xff, 0xff, 0xa6, 0xec, 0xff, 0xff, 
  0x04, 0x00, 0x00, 0x00, 0x00, 0x08, 0x00, 0x00, 0x2e, 0xe7, 0xf8, 0x04, 
  0xde, 0xc5, 0xd3, 0xf0, 0x66, 0x35, 0x1c, 0xc0, 0x43, 0x21, 0x20, 0xd7, 
  0xdb, 0xc0, 0xa0, 0xdb, 0xb9, 0xee, 0x62, 0x02, 0x21, 0x7f, 0xd3, 0x01, 
  0xc0, 0x15, 0x13, 0xf6, 0x9a, 0xee, 0x67, 0xae, 0xa3, 0xd1, 0xec, 0x33, 
  0x15, 0x81, 0xa5, 0x4f, 0x9e, 0x75, 0xb9, 0x4d, 0xe5, 0x0b, 0x36, 0x36, 
  0xc9, 0x5c, 0x05, 0xfd, 0x5a, 0x45, 0xb5, 0x1e, 0xe7, 0x48, 0x3c, 0xed, 
  0xf6, 0xa4, 0xb8, 0xf7, 0x92, 0xd0, 0x95, 0xc7, 0x28, 0xbc, 0xc1, 0x99, 
  0xf7, 0xdb, 0xbc, 0xc3, 0xb9, 0x51, 0x10, 0x1e, 0xf0, 0xe8, 0xee, 0x18, 
  0xbf, 0x15, 0x67, 0x3f, 0x46, 0x7f, 0x2b, 0x48, 0xe7, 0x67, 0xde, 0x08, 
  0x21, 0xfc, 0xe9, 0x5e, 0xbe, 0x81, 0xc4, 0x6d, 0x11, 0xdf, 0xd1, 0xbc, 
  0xd1, 0xf3, 0x4c, 0xbc, 0xb9, 0xc8, 0x27, 0x31, 0x72, 0xed, 0xd8, 0xb7, 
  0x35, 0x1b, 0xd9, 0xda, 0xd1, 0x32, 0xb6, 0xbe, 0xa2, 0xf7, 0x18, 0x1e, 
  0x12, 0x02, 0x15, 0x5e, 0x49, 0x45, 0x53, 0xf1, 0xb2, 0xd0, 0x9d, 0x3b, 
  0xda, 0x2e, 0x7f, 0xb6, 0xc3, 0xd7, 0x0d, 0x3c, 0x20, 0x2c, 0x10, 0x46, 
  0x82, 0x3b, 0xce, 0xd8, 0x1b, 0x1d, 0xc6, 0x15, 0x99, 0x02, 0x06, 0x7f, 
  0x89, 0x57, 0xda, 0xbc, 0x2d, 0xf9, 0xd1, 0x05, 0x28, 0x6f, 0x33, 0xcc, 
  0x6a, 0xbe, 0xf5, 0x9c, 0xbc, 0x18, 0xc2, 0xa1, 0xab, 0x52, 0x6c, 0xc6, 
  0xfb, 0xe8, 0xe2, 0xed, 0xca, 0xfc, 0x03, 0x33, 0xff, 0x46, 0xc3, 0x2a, 
  0x09, 0x8f, 0x81, 0xe4, 0xfc, 0xd0, 0x46, 0xc2, 0x2a, 0x50, 0xb0, 0xcd, 
  0x2b, 0x98, 0xd7, 0x37, 0x1c, 0x1e, 0x2a, 0xc1, 0x08, 0x09, 0x2e, 0x12, 
  0xd9, 0x4b, 0x00, 0xc3, 0xf2, 0xfa, 0xc9, 0x09, 0x1a, 0x00, 0x63, 0x79, 
  0x52, 0x62, 0x94, 0x4b, 0xf8, 0x81, 0xa4, 0xe8, 0xc7, 0x08, 0xc3, 0x05, 
  0xa3, 0x28, 0x0e, 0x97, 0x13, 0x45, 0xdc, 0x0a, 0x6a, 0xae, 0xb7, 0xea, 
  0xbb, 0x65, 0xc6, 0xee, 0xaa, 0x45, 0xdb, 0xe3, 0xfc, 0x92, 0xab, 0x8e, 
  0xaa, 0xdb, 0x3b, 0xdf, 0x58, 0xeb, 0x0f, 0x7f, 0xdb, 0xdb, 0xb9, 0x1a, 
  0xc8, 0x2d, 0xd5, 0xfa, 0x55, 0x1c, 0xe2, 0x23, 0xdc, 0x31, 0x03, 0xed, 
  0xe0, 0x71, 0x49, 0xe0, 0x7f, 0x7d, 0xf7, 0xfe, 0xfd, 0x60, 0x5c, 0xcc, 
  0xe9, 0x70, 0x7b, 0x08, 0xf1, 0x0b, 0xdb, 0xf1, 0xa7, 0xde, 0x3c, 0x19, 
  0x09, 0xf8, 0xc6, 0x09, 0x40, 0x2e, 0x0b, 0xe8, 0xd4, 0x5b, 0xe7, 0xff, 
  0x64, 0x78, 0xe8, 0x09, 0x5d, 0x6b, 0xdf, 0xdb, 0x04, 0x1c, 0x7f, 0x1b, 
  0x30, 0x40, 0xd9, 0x1a, 0x1a, 0xfc, 0x10, 0xf5, 0xde, 0x18, 0xd1, 0xc3, 
  0xd8, 0xcc, 0xfe, 0xd3, 0x05, 0x51, 0xfc, 0xf5, 0x1f, 0x31, 0x13, 0x30, 
  0xe9, 0x81, 0x9d, 0xdd, 0xd7, 0x34, 0xc6, 0xc4, 0x43, 0x3a, 0x17, 0x73, 
  0x37, 0xaa, 0xf0, 0x4e, 0x42, 0xab, 0x46, 0xbb, 0x37, 0xd6, 0xf2, 0x20, 
  0xbc, 0x40, 0x14, 0x13, 0x61, 0xaa, 0x2e, 0xf6, 0x24, 0xa9, 0x81, 0x46, 
  0x64, 0x1b, 0x6b, 0xe9, 0x26, 0xfe, 0x68, 0x36, 0xc3, 0x48, 0xad, 0x6d, 
  0x1f, 0x31, 0x29, 0x15, 0x0f, 0x3b, 0xf0, 0x44, 0x6e, 0x39, 0xec, 0x4c, 
  0x3c, 0xc3, 0x81, 0x2d, 0x01, 0xe1, 0x2f, 0x25, 0x8e, 0x14, 0xd8, 0xb8, 
  0x40, 0xf0, 0x34, 0xdb, 0x12, 0xec, 0xed, 0xc4, 0x2c, 0xbf, 0xe6, 0x2c, 
  0xcd, 0xb2, 0xf2, 0xf3, 0xfe, 0x4b, 0x74, 0x3f, 0x48, 0x58, 0x81, 0xfd, 
  0xcc, 0x22, 0xc9, 0x04, 0x25, 0x37, 0x48, 0xea, 0x74, 0x87, 0x81, 0xdc, 
  0x1d, 0x9d, 0x74, 0x81, 0x8a, 0x68, 0x54, 0xdd, 0x42, 0xc0, 0x4b, 0xbe, 
  0x7c, 0xb7, 0x09, 0x4c, 0xd5, 0x16, 0xb8, 0x2a, 0x21, 0x6c, 0x65, 0x4d, 
  0xbe, 0xcd, 0x6b, 0xe1, 0x63, 0x03, 0x1f, 0xfc, 0x00, 0xd1, 0x30, 0xc4, 
  0x3e, 0x4e, 0xff, 0xb6, 0xfe, 0x2a, 0x94, 0x03, 0x06, 0xdd, 0x46, 0xda, 
  0x24, 0xd1, 0x2b, 0xc8, 0x23, 0x7f, 0xd8, 0x29, 0xbb, 0x14, 0x69, 0xd4, 
  0x45, 0xe8, 0xdf, 0x63, 0xea, 0xbe, 0x13, 0xc9, 0x3e, 0x17, 0xf3, 0x49, 
  0xda, 0x10, 0x2d, 0xc2, 0x00, 0xe1, 0x31, 0xb4, 0x26, 0x31, 0x41, 0xb1, 
  0xfd, 0x76, 0x81, 0xf0, 0x5e, 0x5d, 0x78, 0x4f, 0x54, 0xb4, 0x27, 0x0e, 
  0x0a, 0xe7, 0x06, 0x31, 0xee, 0x66, 0xe6, 0x03, 0x60, 0xeb, 0x48, 0xc5, 
  0xb1, 0x2b, 0xa8, 0xba, 0x36, 0x1f, 0xf6, 0xb4, 0xda, 0xa0, 0x1d, 0x4f, 
  0x61, 0x99, 0x81, 0x39, 0xe7, 0x8c, 0x40, 0xea, 0xf8, 0xb5, 0xc8, 0xad, 
  0x3d, 0x76, 0x15, 0xa2, 0x03, 0xbb, 0x23, 0x3d, 0xb1, 0xc5, 0xb6, 0xae, 
  0xdc, 0x44, 0x42, 0x7f, 0x28, 0x48, 0xd8, 0x48, 0x15, 0x63, 0xcd, 0xaa, 
  0xa7, 0xe4, 0x20, 0xa0, 0x9a, 0xc6, 0x3d, 0x12, 0xbc, 0xf3, 0xc9, 0xe0, 
  0xb4, 0xb2, 0x29, 0x09, 0xf2, 0x56, 0x4e, 0x46, 0x1f, 0xea, 0x88, 0x6c, 
  0x5d, 0xd0, 0xb8, 0xc3, 0x28, 0x7f, 0x7f, 0xd5, 0x81, 0xbc, 0x97, 0xeb, 
  0x21, 0x23, 0x8b, 0xa9, 0xd7, 0x90, 0x3c, 0x69, 0xff, 0xb4, 0x2c, 0xae, 
  0x31, 0xdb, 0xe3, 0xfa, 0x49, 0xa5, 0xb3, 0xf5, 0x32, 0x01, 0xcc, 0xbf, 
  0xba, 0x2d, 0xb8, 0x30, 0x21, 0xb3, 0xe9, 0xd4, 0x38, 0x30, 0xe5, 0x03, 
  0x1f, 0x0a, 0xbf, 0x94, 0x20, 0xbe, 0xd0, 0x22, 0x21, 0x4e, 0xea, 0x1a, 
  0x09, 0x2f, 0xf7, 0x1c, 0xfa, 0xa5, 0x7f, 0x2b, 0xdc, 0x2c, 0xbf, 0xc8, 
  0xf9, 0x0e, 0x93, 0x7f, 0xca, 0xfe, 0x53, 0xba, 0x6b, 0xe7, 0xf2, 0xb7, 
  0x5a, 0x40, 0x30, 0x83, 0xc8, 0x91, 0x3f, 0xac, 0xb2, 0xd3, 0xd2, 0x4a, 
  0xaf, 0x0b, 0xd8, 0x5e, 0x1b, 0x38, 0x8e, 0xdf, 0x30, 0x37, 0x33, 0x1f, 
  0x30, 0xc2, 0xc5, 0xc7, 0x03, 0x33, 0xf7, 0x31, 0x0f, 0xf3, 0xce, 0xbc, 
  0x38, 0x1a, 0x3f, 0x51, 0x79, 0x18, 0x96, 0x27, 0x0b, 0x00, 0xe4, 0x2f, 
  0xf7, 0x7f, 0x37, 0x1e, 0x01, 0xf2, 0xf9, 0xea, 0xe3, 0xcf, 0xc4, 0xfb, 
  0x2c, 0xfd, 0xec, 0x22, 0x07, 0x01, 0xd5, 0x21, 0xdc, 0xfb, 0x13, 0xe1, 
  0x2b, 0x05, 0x02, 0x24, 0x4c, 0x7f, 0xb7, 0xdd, 0x32, 0x39, 0x06, 0xcc, 
  0xd5, 0xe1, 0xab, 0x38, 0x0f, 0xf4, 0xf8, 0x14, 0x73, 0x7f, 0x5e, 0x9f, 
  0xe5, 0xe3, 0x35, 0x9f, 0xf3, 0xc0, 0x92, 0xea, 0xcb, 0x19, 0x42, 0xc6, 
  0x48, 0x50, 0x96, 0x70, 0x67, 0xdf, 0x5f, 0x35, 0x1e, 0xc9, 0x0e, 0x00, 
  0x0f, 0xfc, 0x3d, 0xd1, 0x41, 0x29, 0x08, 0xb1, 0x04, 0x26, 0xce, 0xfa, 
  0x20, 0x9e, 0x9c, 0x22, 0xda, 0x27, 0xf2, 0xbb, 0xdf, 0xdb, 0x81, 0xd3, 
  0x03, 0xef, 0xa6, 0xd2, 0x19, 0xf5, 0x44, 0xc5, 0xf3, 0xcb, 0x48, 0x38, 
  0xc6, 0x36, 0xb9, 0xa9, 0x1f, 0xd9, 0x2c, 0xe8, 0xdc, 0x2d, 0xf7, 0x08, 
  0x33, 0x53, 0xde, 0x44, 0xa5, 0x81, 0xb5, 0xc8, 0xf0, 0xeb, 0x9d, 0xec, 
  0xe5, 0x14, 0x15, 0xeb, 0x29, 0xd1, 0xcc, 0xfb, 0x23, 0x1a, 0x10, 0xd1, 
  0x45, 0xe0, 0xc0, 0x30, 0xd6, 0x11, 0x66, 0x19, 0x19, 0x38, 0xcf, 0xf2, 
  0xc2, 0xdd, 0x7f, 0xf5, 0xc5, 0x6c, 0xea, 0xd4, 0x32, 0xff, 0xd9, 0x12, 
  0x08, 0xd2, 0xe6, 0xe2, 0x3d, 0x3f, 0xf7, 0x1e, 0x19, 0xb1, 0x0a, 0xc0, 
  0xfb, 0xd7, 0xf0, 0xd3, 0x22, 0xf5, 0xf0, 0x20, 0x60, 0x31, 0x34, 0x0f, 
  0x2a, 0x4c, 0x7f, 0x21, 0x10, 0xb8, 0xf7, 0x37, 0xdc, 0xef, 0xd7, 0x08, 
  0x2e, 0x5c, 0xfd, 0xc3, 0x47, 0xcc, 0x47, 0x45, 0xd8, 0x20, 0x4c, 0x3b, 
  0xf6, 0x41, 0x27, 0xe5, 0xdd, 0x81, 0x4e, 0x97, 0xa0, 0xf9, 0xf9, 0xea, 
  0x52, 0x9b, 0x2d, 0xd9, 0x05, 0xc4, 0x11, 0xf2, 0x61, 0x65, 0xdc, 0x2a, 
  0x10, 0x45, 0xbb, 0xf9, 0xe3, 0x12, 0x13, 0x94, 0xb1, 0xf2, 0x4a, 0xcb, 
  0x2c, 0xbd, 0x7f, 0xf0, 0x3b, 0x3f, 0xea, 0x3b, 0x0c, 0xa9, 0xe8, 0x0f, 
  0xe0, 0x1c, 0xd6, 0xee, 0x5c, 0xd9, 0x28, 0xc4, 0x38, 0x00, 0xda, 0x14, 
  0x19, 0xdb, 0x22, 0xb9, 0x21, 0xfd, 0x26, 0xdc, 0x75, 0x7f, 0xcb, 0x00, 
  0xd0, 0x10, 0x57, 0xb4, 0xe9, 0xd1, 0x16, 0xf3, 0xe8, 0x08, 0x26, 0xf3, 
  0x04, 0x3b, 0x00, 0x01, 0x32, 0xc9, 0xef, 0x15, 0x02, 0xc7, 0xbe, 0x26, 
  0xf7, 0x06, 0xcd, 0xd4, 0x3d, 0x64, 0x81, 0xa0, 0x9b, 0xa7, 0x45, 0x00, 
  0x2e, 0x53, 0x34, 0x0d, 0x3d, 0xb3, 0xb7, 0x05, 0xc5, 0xd0, 0xe9, 0xf4, 
  0xcd, 0xcc, 0x03, 0xd9, 0xbf, 0xf1, 0xcd, 0xbe, 0x3d, 0x44, 0x7f, 0xe8, 
  0xb7, 0x06, 0x14, 0x48, 0x6a, 0x85, 0x02, 0x2d, 0x1f, 0x4d, 0xc7, 0xde, 
  0x04, 0x02, 0x53, 0xa3, 0xed, 0x32, 0xc0, 0xae, 0x55, 0xc7, 0x3e, 0x4b, 
  0x31, 0x8a, 0xa0, 0xe0, 0x29, 0xda, 0x48, 0x45, 0x17, 0xc3, 0x8d, 0xa4, 
  0xfa, 0xfe, 0x81, 0xdb, 0xf0, 0xf4, 0x04, 0x19, 0x2d, 0xec, 0xe3, 0x26, 
  0x4e, 0x4c, 0x19, 0xd8, 0x46, 0x00, 0xc5, 0xc4, 0xd2, 0x0f, 0x2c, 0x1f, 
  0x00, 0x03, 0xf9, 0xf8, 0x4e, 0x7f, 0x0b, 0xf5, 0x1b, 0x36, 0x57, 0x1e, 
  0x15, 0xf7, 0x38, 0xc3, 0xae, 0xd1, 0xc6, 0x43, 0xa8, 0xcb, 0xc1, 0x28, 
  0xed, 0xda, 0xc5, 0x4a, 0xff, 0xeb, 0xb2, 0x48, 0x19, 0xb1, 0x02, 0x0d, 
  0x35, 0x01, 0xc2, 0x81, 0xb2, 0x99, 0x89, 0x10, 0xfa, 0xbd, 0xac, 0x0e, 
  0x49, 0xcd, 0xdf, 0x14, 0x1c, 0xd5, 0x38, 0xa5, 0x47, 0xe6, 0x2e, 0xcd, 
  0xe3, 0x44, 0x77, 0x57, 0x2b, 0x6b, 0xad, 0x11, 0x0c, 0x15, 0xd5, 0xca, 
  0xd7, 0x7f, 0x1e, 0x3d, 0xfe, 0x4b, 0x4b, 0x69, 0x35, 0x93, 0x7f, 0xbd, 
  0xde, 0xd7, 0xb2, 0x2e, 0x72, 0x33, 0x46, 0x2e, 0x29, 0x99, 0xc8, 0xa3, 
  0xb6, 0xe2, 0xef, 0x23, 0xec, 0x30, 0x5c, 0xed, 0x1e, 0x6a, 0xca, 0x21, 
  0x1c, 0x29, 0x20, 0xfb, 0x34, 0xc3, 0x53, 0x2b, 0x35, 0xad, 0x01, 0x7f, 
  0x25, 0x5f, 0xc8, 0x3a, 0xf1, 0xb3, 0xf0, 0xa2, 0x9b, 0x9c, 0xff, 0x06, 
  0xdc, 0x40, 0x4a, 0x45, 0x67, 0xb4, 0x87, 0x20, 0x5a, 0xe4, 0xf5, 0x00, 
  0xdb, 0xeb, 0xde, 0xa5, 0x68, 0x17, 0x2d, 0xc0, 0x00, 0x07, 0x2d, 0xf4, 
  0x12, 0x07, 0xdb, 0x33, 0x34, 0xfe, 0xaf, 0xe9, 0x10, 0x43, 0x7f, 0xda, 
  0x00, 0xcf, 0xdf, 0xf9, 0xf6, 0x28, 0x20, 0x48, 0x23, 0x17, 0x62, 0xf4, 
  0x33, 0xa9, 0xc5, 0x41, 0xb0, 0x55, 0xed, 0x37, 0xe6, 0xe0, 0x0a, 0x28, 
  0x81, 0xfe, 0x58, 0x3e, 0x37, 0x3a, 0xf7, 0x2b, 0x8d, 0xca, 0x9c, 0xf3, 
  0xad, 0xfd, 0xe5, 0x0a, 0xc7, 0x2b, 0xca, 0x38, 0xef, 0x2a, 0x16, 0x58, 
  0xd3, 0x4b, 0x36, 0x30, 0x11, 0xb1, 0x8e, 0xe3, 0xb5, 0xa8, 0x57, 0x05, 
  0x0e, 0x3d, 0x11, 0x08, 0x0e, 0x81, 0x92, 0xd3, 0xab, 0x95, 0xac, 0x6a, 
  0xda, 0xaa, 0xb6, 0x26, 0xff, 0x7f, 0x53, 0xc0, 0xd7, 0xba, 0x17, 0xc6, 
  0xfc, 0x17, 0xd1, 0xda, 0x87, 0x35, 0xf9, 0xc6, 0x3f, 0x32, 0x38, 0xcb, 
  0xa2, 0xcf, 0xd6, 0xbd, 0x49, 0x78, 0x1a, 0xd0, 0x28, 0x20, 0x2c, 0x4e, 
  0xf6, 0x93, 0xbf, 0x7b, 0xd2, 0x1d, 0xec, 0x03, 0xda, 0x1e, 0x7f, 0xd1, 
  0x19, 0x54, 0xb0, 0x65, 0x39, 0xc2, 0x55, 0xf1, 0x94, 0x03, 0x70, 0xc5, 
  0xc2, 0x3d, 0x15, 0xd3, 0xdd, 0xe4, 0xff, 0x0c, 0xce, 0x16, 0xc1, 0xca, 
  0xcd, 0x25, 0x0a, 0xdf, 0x04, 0xbb, 0x05, 0x40, 0xbe, 0x97, 0x21, 0xc4, 
  0x53, 0x64, 0xdd, 0xd0, 0x00, 0x81, 0x9a, 0x87, 0xd9, 0x38, 0xbf, 0xb9, 
  0x31, 0xeb, 0x7f, 0xad, 0xef, 0xdd, 0x55, 0x9a, 0xbb, 0x0a, 0x30, 0xc2, 
  0xcd, 0x4c, 0xbe, 0x9a, 0xab, 0x8f, 0xcb, 0x58, 0x19, 0x9d, 0x2d, 0x3d, 
  0x38, 0xcd, 0xc8, 0xef, 0xcd, 0xd5, 0x30, 0xca, 0x26, 0x01, 0x53, 0x2e, 
  0x61, 0x79, 0xbb, 0xc0, 0x71, 0x1c, 0x54, 0xb8, 0xc0, 0xdd, 0x06, 0x21, 
  0xdd, 0x59, 0xff, 0x22, 0xbd, 0xe5, 0x1c, 0x0f, 0xe9, 0x5f, 0x81, 0x29, 
  0x47, 0x4d, 0xfa, 0x47, 0x3a, 0xff, 0x81, 0x63, 0xe0, 0x3b, 0x5d, 0x12, 
  0xf4, 0xb8, 0xf5, 0xb0, 0xf3, 0xac, 0x9f, 0xd9, 0xe2, 0xf0, 0x76, 0x5d, 
  0x34, 0xd1, 0x07, 0x03, 0x40, 0x95, 0x41, 0xe0, 0x15, 0x45, 0x23, 0xb3, 
  0x26, 0xe3, 0x07, 0xac, 0xb8, 0xd2, 0xfe, 0xa8, 0xbc, 0x19, 0xc6, 0xcc, 
  0x0b, 0xd8, 0x32, 0x33, 0x58, 0x44, 0x36, 0x15, 0x47, 0xb8, 0x7f, 0xfb, 
  0xae, 0x57, 0xea, 0xa4, 0xa1, 0x42, 0x53, 0x19, 0x61, 0x1a, 0xf4, 0x1f, 
  0x41, 0x34, 0xf4, 0x69, 0x01, 0x43, 0x4c, 0x28, 0xc5, 0xd1, 0x87, 0x6e, 
  0xb2, 0xff, 0x3c, 0x81, 0xa4, 0x39, 0x5f, 0xb9, 0x4b, 0xcf, 0x96, 0x0c, 
  0xfc, 0xf3, 0xdd, 0x22, 0x1c, 0xd9, 0x27, 0x43, 0x51, 0x28, 0x41, 0x17, 
  0x51, 0x10, 0xd9, 0x4d, 0x15, 0xdc, 0x29, 0x2a, 0x01, 0x33, 0x07, 0x41, 
  0x12, 0xf8, 0x81, 0xa7, 0xef, 0xba, 0xa1, 0xf6, 0x48, 0xb5, 0x92, 0xcd, 
  0x2b, 0x10, 0xd5, 0x1d, 0x2a, 0x2a, 0x33, 0xbe, 0x57, 0x3e, 0x05, 0xf6, 
  0xd6, 0x5d, 0x35, 0x40, 0xe0, 0x47, 0x1c, 0x7f, 0xa1, 0x9c, 0x81, 0xf6, 
  0x30, 0xc3, 0x9c, 0xd1, 0x4f, 0xdb, 0x93, 0xfa, 0x29, 0x53, 0xf1, 0xc7, 
  0x7f, 0xf2, 0x43, 0x32, 0x45, 0x03, 0xee, 0xce, 0xcf, 0xfd, 0xdf, 0xc6, 
  0x19, 0x04, 0x41, 0xd3, 0xe9, 0x28, 0x05, 0x8a, 0x3e, 0x56, 0xde, 0xbb, 
  0xc2, 0x4d, 0xf2, 0x4c, 0x44, 0xbb, 0x1e, 0xb0, 0xa7, 0x1c, 0x45, 0x0b, 
  0xb5, 0xe8, 0x03, 0xeb, 0xff, 0x18, 0xe9, 0x9d, 0x81, 0xb0, 0x33, 0xb6, 
  0x09, 0x02, 0x06, 0x40, 0x3d, 0x24, 0x32, 0xd4, 0xf8, 0x58, 0xed, 0xd4, 
  0x06, 0x5e, 0x34, 0xf5, 0xbc, 0x0e, 0xb4, 0xc7, 0x1c, 0x52, 0x46, 0x1d, 
  0x3d, 0x0c, 0x81, 0x03, 0xbe, 0xbc, 0x65, 0x1d, 0xc9, 0x04, 0x24, 0xb5, 
  0xa8, 0x81, 0xaa, 0x04, 0xf6, 0x44, 0xf2, 0x37, 0x31, 0xf1, 0xb3, 0x3b, 
  0x02, 0xce, 0x51, 0x44, 0xb8, 0xf3, 0xbd, 0xd4, 0x44, 0x13, 0xae, 0xfb, 
  0xf5, 0x2d, 0x41, 0xce, 0xe1, 0x39, 0x3c, 0x3b, 0x6b, 0x81, 0xba, 0xf1, 
  0xd2, 0x24, 0x8e, 0x7f, 0x25, 0xb9, 0x55, 0x45, 0x7a, 0x15, 0xd8, 0x25, 
  0xfc, 0x12, 0x14, 0xa5, 0x6a, 0xa4, 0xd6, 0x43, 0xe1, 0xb5, 0xf0, 0xd7, 
  0x95, 0x87, 0xdd, 0xba, 0x20, 0xe6, 0xda, 0x5d, 0x0a, 0x22, 0xc5, 0xcf, 
  0x47, 0xeb, 0xe6, 0xf6, 0xd4, 0x15, 0x41, 0xb7, 0xed, 0x22, 0x06, 0x04, 
  0x04, 0x2c, 0xe7, 0x76, 0x27, 0xbd, 0xa1, 0x3e, 0xbc, 0xa9, 0x8e, 0x8a, 
  0xff, 0xd2, 0x81, 0x10, 0x4b, 0x64, 0xbe, 0xd3, 0x09, 0x81, 0x09, 0x1f, 
  0x96, 0xcd, 0x2f, 0x3f, 0xee, 0xd3, 0x90, 0xce, 0x3a, 0x3b, 0x8d, 0x5e, 
  0xf9, 0x19, 0x5d, 0x5e, 0x6b, 0xfc, 0x02, 0x3a, 0x8d, 0xe3, 0x83, 0xe2, 
  0xc8, 0xf0, 0x07, 0xbb, 0x2c, 0xd1, 0x2d, 0xd7, 0xc8, 0x0c, 0x2b, 0x2d, 
  0xfa, 0x46, 0xd6, 0x4b, 0xe1, 0x3f, 0x3d, 0x7f, 0x4b, 0x22, 0xb0, 0x40, 
  0xf7, 0xbf, 0x0d, 0xad, 0xc5, 0x38, 0xcc, 0xbf, 0x1f, 0x0d, 0x4a, 0xbf, 
  0xdc, 0x28, 0xee, 0x2b, 0xda, 0xdf, 0xbe, 0xb7, 0x1c, 0x0f, 0xe0, 0xb8, 
  0x18, 0x31, 0x2e, 0xd6, 0x37, 0xed, 0xbb, 0x35, 0xff, 0xcb, 0x0b, 0x0b, 
  0xb4, 0x7f, 0x1e, 0x0a, 0xb2, 0xf4, 0xff, 0xff, 0x04, 0x00, 0x00, 0x00, 
  0x00, 0x01, 0x00, 0x00, 0x9c, 0x02, 0x00, 0x00, 0xfc, 0x03, 0x00, 0x00, 
  0x83, 0x02, 0x00, 0x00, 0x07, 0x00, 0x00, 0x00, 0x1d, 0x02, 0x00, 0x00, 
  0x1f, 0x05, 0x00, 0x00, 0x3f, 0x06, 0x00, 0x00, 0xc4, 0x01, 0x00, 0x00, 
  0xcc, 0x01, 0x00, 0x00, 0x14, 0x04, 0x00, 0x00, 0xdb, 0x01, 0x00, 0x00, 
  0x31, 0x00, 0x00, 0x00, 0x49, 0xfe, 0xff, 0xff, 0x8e, 0x03, 0x00, 0x00, 
  0x7e, 0xff, 0xff, 0xff, 0x41, 0x00, 0x00, 0x00, 0x2c, 0x03, 0x00, 0x00, 
  0x69, 0xfe, 0xff, 0xff, 0xeb, 0x03, 0x00, 0x00, 0x6b, 0x01, 0x00, 0x00, 
  0x7a, 0x01, 0x00, 0x00, 0x9d, 0x03, 0x00, 0x00, 0x3e, 0x04, 0x00, 0x00, 
  0xf1, 0x03, 0x00, 0x00, 0x64, 0x02, 0x00, 0x00, 0x11, 0x01, 0x00, 0x00, 
  0x25, 0x06, 0x00, 0x00, 0xdc, 0x01, 0x00, 0x00, 0xd3, 0x03, 0x00, 0x00, 
  0x33, 0x01, 0x00, 0x00, 0x06, 0x00, 0x00, 0x00, 0x6f, 0x03, 0x00, 0x00, 
  0xd4, 0x02, 0x00, 0x00, 0x79, 0x02, 0x00, 0x00, 0x84, 0x04, 0x00, 0x00, 
  0x5f, 0xff, 0xff, 0xff, 0xd0, 0x03, 0x00, 0x00, 0x60, 0x01, 0x00, 0x00, 
  0x95, 0x05, 0x00, 0x00, 0x42, 0x00, 0x00, 0x00, 0xfa, 0x02, 0x00, 0x00, 
  0x2b, 0x05, 0x00, 0x00, 0x37, 0x04, 0x00, 0x00, 0xa5, 0x03, 0x00, 0x00, 
  0xfc, 0x02, 0x00, 0x00, 0xf9, 0x03, 0x00, 0x00, 0x7f, 0x03, 0x00, 0x00, 
  0x76, 0x06, 0x00, 0x00, 0x77, 0x02, 0x00, 0x00, 0x57, 0x04, 0x00, 0x00, 
  0x0e, 0xfe, 0xff, 0xff, 0x50, 0x01, 0x00, 0x00, 0x34, 0x03, 0x00, 0x00, 
  0x75, 0x03, 0x00, 0x00, 0x53, 0x02, 0x00, 0x00, 0x10, 0x02, 0x00, 0x00, 
  0xec, 0xfd, 0xff, 0xff, 0xd3, 0x03, 0x00, 0x00, 0x43, 0x01, 0x00, 0x00, 
  0x77, 0x00, 0x00, 0x00, 0x4c, 0x04, 0x00, 0x00, 0x1b, 0x04, 0x00, 0x00, 
  0x72, 0x03, 0x00, 0x00, 0x70, 0x00, 0x00, 0x00, 0xbe, 0xf5, 0xff, 0xff, 
  0x04, 0x00, 0x00, 0x00, 0x00, 0x08, 0x00, 0x00, 0xf7, 0xae, 0xe4, 0x0c, 
  0xe1, 0xbb, 0xa7, 0x60, 0xa0, 0x7f, 0x6a, 0x48, 0x2d, 0x07, 0xdd, 0x36, 
  0xe9, 0xbd, 0x10, 0x47, 0xe9, 0xc4, 0x6d, 0xf8, 0x44, 0x11, 0x2f, 0xd7, 
  0x9c, 0x1f, 0x3e, 0x41, 0xf1, 0x5a, 0x09, 0xf2, 0xd8, 0x54, 0x20, 0x24, 
  0xd8, 0x49, 0x68, 0xe0, 0xf2, 0x0d, 0x04, 0x17, 0xd3, 0xb4, 0x3f, 0xfa, 
  0x1f, 0x6d, 0x07, 0x45, 0x25, 0x1c, 0xb4, 0x3f, 0x4a, 0x49, 0xbe, 0xba, 
  0x12, 0xe8, 0x01, 0x44, 0xfa, 0xed, 0x32, 0x5b, 0xd3, 0xe4, 0xb6, 0xfe, 
  0x27, 0x33, 0x19, 0x0b, 0x25, 0xc9, 0xe0, 0x1f, 0xe8, 0x02, 0x2d, 0x1c, 
  0xdc, 0x39, 0x09, 0x0f, 0x7f, 0xbc, 0xbb, 0xf9, 0xc1, 0x20, 0x59, 0xd6, 
  0x54, 0xfb, 0x3c, 0xf3, 0xb0, 0xd2, 0xff, 0x36, 0xe0, 0x41, 0xf7, 0x58, 
  0x06, 0x50, 0x0b, 0x97, 0xe9, 0x10, 0x5a, 0x37, 0xe0, 0xff, 0xe3, 0x24, 
  0x7a, 0x3f, 0xf6, 0x14, 0x29, 0x21, 0xe2, 0xf6, 0xed, 0x61, 0x12, 0xc7, 
  0x4d, 0xd4, 0x34, 0x2b, 0x2b, 0x55, 0xd3, 0xf4, 0xc2, 0x99, 0x42, 0xde, 
  0xd0, 0x21, 0xdc, 0x1b, 0x8f, 0x34, 0x28, 0x66, 0xfc, 0xcb, 0x0b, 0x08, 
  0x21, 0xd1, 0x6d, 0xe7, 0x7f, 0xb6, 0x59, 0xdb, 0x19, 0xbb, 0xe5, 0x37, 
  0x30, 0x0d, 0x5e, 0x74, 0xf5, 0x13, 0xae, 0x06, 0x2e, 0x56, 0xc1, 0x1f, 
  0xbd, 0x60, 0xf9, 0x1b, 0x54, 0xf0, 0x08, 0x0b, 0xc9, 0x1a, 0xcb, 0xeb, 
  0x4a, 0x44, 0x69, 0x44, 0xb4, 0xe0, 0x04, 0xda, 0x3c, 0xe2, 0x04, 0x30, 
  0xfd, 0x71, 0xbb, 0x3e, 0x4b, 0x42, 0xb3, 0x41, 0x41, 0x0b, 0xe1, 0xc2, 
  0x19, 0x83, 0x5e, 0xf2, 0xd8, 0x6c, 0x66, 0x00, 0x1c, 0x74, 0x46, 0x39, 
  0x64, 0xf0, 0xd5, 0x70, 0x14, 0xf5, 0xf6, 0x0b, 0x43, 0xe0, 0x33, 0xb0, 
  0x99, 0x43, 0x3e, 0x3e, 0xc5, 0xc5, 0x45, 0xe6, 0xf6, 0x37, 0xdc, 0x81, 
  0xd4, 0x48, 0x1d, 0xe0, 0xf8, 0xe7, 0x50, 0xcf, 0xd9, 0xde, 0xdb, 0x30, 
  0xdf, 0x22, 0xce, 0x50, 0x3a, 0x9c, 0xe5, 0x1e, 0xe2, 0x34, 0x5d, 0x49, 
  0x03, 0xd6, 0x81, 0xc7, 0x18, 0x6e, 0x45, 0x1d, 0x18, 0xc4, 0xf3, 0xe1, 
  0x13, 0xf0, 0x3e, 0x11, 0xea, 0xf1, 0xf5, 0x6b, 0x5b, 0xe7, 0x1c, 0x36, 
  0x04, 0x10, 0x44, 0xea, 0x4c, 0x13, 0xea, 0x22, 0x30, 0x1e, 0xed, 0xc6, 
  0x17, 0x69, 0x5c, 0xa9, 0x93, 0xc2, 0xe7, 0xc9, 0xfe, 0xfe, 0x29, 0xd7, 
  0xda, 0x21, 0xb6, 0xa3, 0x3f, 0xfc, 0x29, 0xdc, 0xcf, 0xa1, 0x01, 0x66, 
  0x8d, 0x82, 0x54, 0xa9, 0x8c, 0xbe, 0x42, 0x55, 0xfd, 0x69, 0x9b, 0xd4, 
  0xa1, 0xa4, 0xb0, 0x1d, 0xd3, 0x55, 0xb9, 0xbf, 0xae, 0x4a, 0x34, 0x49, 
  0xc1, 0x18, 0xff, 0x58, 0xd4, 0x81, 0x2f, 0xe4, 0xc1, 0xc6, 0x24, 0x29, 
  0xfa, 0xd4, 0x57, 0x49, 0x96, 0x25, 0x90, 0x2d, 0xbb, 0x5e, 0xc3, 0xd7, 
  0x5e, 0x27, 0x51, 0x7f, 0x16, 0xc4, 0x63, 0x68, 0xdb, 0x48, 0xec, 0xbf, 
  0xd6, 0x48, 0x34, 0xd9, 0x08, 0x42, 0x19, 0x50, 0x6b, 0x3b, 0x18, 0x11, 
  0x07, 0x46, 0x19, 0xbf, 0x50, 0xe9, 0xe8, 0xea, 0xfd, 0xfc, 0x4e, 0x26, 
  0x24, 0xfa, 0xbd, 0xe6, 0x34, 0xe5, 0x49, 0xea, 0x62, 0xd4, 0x2b, 0xc4, 
  0x4b, 0x2a, 0x52, 0xc0, 0xd1, 0xe0, 0x2d, 0x46, 0x00, 0xf6, 0x47, 0x68, 
  0xa0, 0x05, 0xa5, 0x1d, 0x4c, 0x15, 0x7f, 0x2d, 0xcd, 0x31, 0x03, 0xef, 
  0xb5, 0x3b, 0xd6, 0xf2, 0xfb, 0x3f, 0x24, 0x9f, 0xd7, 0x31, 0xf4, 0x2b, 
  0x9c, 0xfa, 0xd7, 0xf9, 0x28, 0xf8, 0x08, 0xcc, 0xd8, 0xc7, 0x48, 0x13, 
  0x4b, 0xb8, 0x41, 0xfb, 0x03, 0x44, 0x9c, 0x34, 0xed, 0xf7, 0xad, 0x56, 
  0x09, 0xfd, 0xee, 0x10, 0x47, 0x32, 0xca, 0xde, 0xf4, 0x22, 0x49, 0x4e, 
  0xe8, 0x25, 0x0d, 0xc6, 0x61, 0xa3, 0x48, 0xbf, 0x41, 0x4a, 0x2b, 0xfd, 
  0xf5, 0x54, 0x0b, 0x59, 0x3a, 0x02, 0xdf, 0xb1, 0xbf, 0x35, 0x63, 0x4e, 
  0x39, 0x13, 0x79, 0x3f, 0x43, 0xa0, 0x68, 0x26, 0x53, 0x39, 0xff, 0x4c, 
  0xb8, 0x97, 0x1e, 0x63, 0x3e, 0x0c, 0xe1, 0x41, 0x57, 0xbc, 0x7f, 0xba, 
  0xda, 0x17, 0xa1, 0xb3, 0x1d, 0xf6, 0xdd, 0x05, 0x56, 0x0e, 0x6d, 0x38, 
  0x16, 0x6a, 0x33, 0x09, 0x06, 0xfa, 0xde, 0x57, 0x2b, 0xf0, 0x02, 0x11, 
  0x06, 0xef, 0x15, 0x06, 0xd0, 0x0d, 0x09, 0xde, 0xfa, 0x18, 0xd9, 0xeb, 
  0x5b, 0x77, 0xfb, 0xf5, 0x39, 0x31, 0xca, 0x3c, 0xe9, 0x56, 0x7f, 0x14, 
  0xad, 0x0a, 0x3a, 0xe0, 0xdd, 0x4f, 0x70, 0xd4, 0x16, 0x2d, 0xc4, 0xd8, 
  0x0a, 0xda, 0x18, 0xe8, 0xed, 0xe1, 0xce, 0x44, 0xd2, 0xc4, 0xe3, 0xcf, 
  0xe9, 0x15, 0x20, 0x21, 0xd0, 0xce, 0x04, 0xcb, 0xb9, 0xfe, 0xba, 0xeb, 
  0x40, 0xfe, 0x17, 0xd7, 0xe8, 0x30, 0xf5, 0x07, 0x09, 0x0c, 0x1a, 0x03, 
  0x26, 0xc0, 0x03, 0x0e, 0x50, 0x77, 0xba, 0x38, 0x53, 0xd2, 0x02, 0xf7, 
  0x5f, 0x31, 0x01, 0xdc, 0x33, 0x1c, 0x09, 0x16, 0xc7, 0x49, 0x4f, 0x2d, 
  0xb8, 0xe8, 0xad, 0x38, 0x39, 0x00, 0xcc, 0x29, 0xe2, 0xe5, 0xf9, 0x81, 
  0x23, 0x05, 0xce, 0xfe, 0xd4, 0x26, 0x11, 0xd3, 0xc8, 0xac, 0xaa, 0x1f, 
  0xdc, 0x2d, 0x0d, 0xd3, 0xe4, 0xe9, 0xf9, 0x1c, 0xe8, 0x3a, 0x75, 0xd3, 
  0x1b, 0x41, 0x16, 0xd6, 0x2f, 0xf5, 0x58, 0x1f, 0x7e, 0x4c, 0x95, 0x4e, 
  0xeb, 0x08, 0xdf, 0xcc, 0x58, 0x61, 0x23, 0xa7, 0xd9, 0xfb, 0x5c, 0x22, 
  0x73, 0x33, 0x0c, 0xfa, 0x81, 0x45, 0x06, 0x17, 0xf1, 0xfb, 0x7e, 0xdd, 
  0xf6, 0x54, 0xea, 0xfe, 0xdc, 0xc7, 0xdc, 0x11, 0x2f, 0xc2, 0xa8, 0x2c, 
  0x2b, 0xdb, 0x54, 0x12, 0xb2, 0x48, 0xa6, 0x3d, 0xf5, 0x42, 0xef, 0xb8, 
  0xc2, 0xbc, 0xc4, 0x4e, 0xc3, 0xc2, 0xac, 0xe8, 0xbb, 0x7f, 0x07, 0xf9, 
  0xdf, 0x8e, 0x0a, 0x59, 0x07, 0x4f, 0x3f, 0x3f, 0xd6, 0x1a, 0x95, 0xf5, 
  0x14, 0x14, 0x8e, 0x7e, 0x4b, 0xff, 0xcf, 0xfb, 0x48, 0xfe, 0x20, 0x5a, 
  0xcf, 0x08, 0x52, 0xba, 0x87, 0xfb, 0x3c, 0xf8, 0x11, 0x6e, 0xb3, 0x6c, 
  0xd5, 0xf5, 0x3a, 0x36, 0x05, 0x08, 0x9c, 0x6a, 0xfe, 0x32, 0x22, 0x29, 
  0x0d, 0x54, 0xf4, 0xfb, 0x0b, 0x5a, 0xf6, 0xd3, 0x32, 0xd8, 0xc0, 0xdd, 
  0xfd, 0x47, 0x81, 0x26, 0x07, 0x27, 0x1d, 0xfc, 0x27, 0x57, 0xe2, 0xce, 
  0x98, 0x09, 0xf3, 0x2e, 0xee, 0x11, 0x19, 0x09, 0xa9, 0xf8, 0x74, 0xe3, 
  0x18, 0xd3, 0x39, 0xec, 0x04, 0x26, 0xe3, 0x3d, 0x3f, 0x20, 0x23, 0x2d, 
  0x23, 0x30, 0x3a, 0xc1, 0x5b, 0x3b, 0x13, 0xfa, 0xba, 0xf3, 0xed, 0xba, 
  0x49, 0x0b, 0x21, 0x27, 0xb3, 0x12, 0x1a, 0x1d, 0xcf, 0xff, 0x07, 0x34, 
  0x44, 0x62, 0xff, 0xf2, 0x2d, 0x34, 0x54, 0x3e, 0x42, 0x01, 0x0e, 0xdb, 
  0x61, 0x57, 0xf7, 0x2a, 0x7f, 0xe4, 0xe8, 0xe1, 0x57, 0x41, 0x03, 0xff, 
  0x03, 0x1c, 0xb8, 0x34, 0xa5, 0x1a, 0xc3, 0x20, 0x2e, 0x02, 0x11, 0xd3, 
  0xc7, 0xee, 0xfa, 0xe5, 0xbb, 0xff, 0xe9, 0x38, 0xbc, 0x0f, 0x00, 0x0d, 
  0xc2, 0xcc, 0xc9, 0xe1, 0xe8, 0xee, 0x63, 0xf5, 0x9e, 0x3d, 0x32, 0x33, 
  0xc2, 0xe7, 0x0d, 0xcd, 0x07, 0x50, 0xe1, 0xb3, 0xee, 0x23, 0xbf, 0x40, 
  0x13, 0xb9, 0x50, 0x41, 0x71, 0x1b, 0x7a, 0xd3, 0xd7, 0x27, 0xf6, 0x0f, 
  0xfb, 0xff, 0xdc, 0x6d, 0xf0, 0x3c, 0x81, 0xf4, 0x3d, 0x03, 0xe7, 0x08, 
  0x2d, 0xb9, 0x1c, 0x8e, 0x9f, 0xf6, 0x24, 0xd4, 0xe0, 0xea, 0xfd, 0x22, 
  0xf1, 0x32, 0x27, 0xd8, 0x45, 0xc7, 0xae, 0x58, 0xba, 0xe5, 0x6a, 0xd5, 
  0x4a, 0x4b, 0x24, 0x24, 0x24, 0x0b, 0xed, 0x43, 0xe6, 0x7f, 0x78, 0xf0, 
  0x18, 0x13, 0x49, 0x1e, 0xdf, 0x42, 0x3d, 0x4b, 0x18, 0xff, 0x9f, 0x50, 
  0x72, 0xea, 0x20, 0xf3, 0x1a, 0xa6, 0x13, 0x04, 0xa2, 0x00, 0x54, 0xc0, 
  0x0e, 0xe2, 0x26, 0xc8, 0x95, 0x92, 0xaa, 0x21, 0xb7, 0xf7, 0x64, 0x9e, 
  0xc7, 0x21, 0x27, 0xe9, 0xae, 0xfe, 0x35, 0xb6, 0xd7, 0xaa, 0x17, 0x27, 
  0xab, 0xc2, 0xc2, 0x6c, 0xb1, 0xd2, 0xf0, 0x50, 0x38, 0xe9, 0x7f, 0x03, 
  0xdd, 0xe3, 0x11, 0xbf, 0xba, 0xec, 0x9d, 0xff, 0xf1, 0xc5, 0x11, 0x07, 
  0xd7, 0x2c, 0x67, 0x05, 0xdd, 0xd9, 0x41, 0xb8, 0xcf, 0x32, 0x5b, 0x71, 
  0xd6, 0x28, 0xff, 0xec, 0x05, 0x3e, 0xd9, 0xaf, 0xf1, 0x54, 0x7b, 0x3a, 
  0x21, 0x49, 0x52, 0x7d, 0x50, 0x06, 0x4f, 0x60, 0x44, 0xdd, 0xbc, 0xd2, 
  0x68, 0xfa, 0xec, 0x40, 0x2d, 0x45, 0xdc, 0x1d, 0x12, 0x5c, 0xe4, 0xb9, 
  0x1d, 0xc0, 0x64, 0x54, 0x6e, 0x45, 0xc2, 0x08, 0x13, 0xf1, 0xdb, 0x08, 
  0xbd, 0xe8, 0x17, 0x5b, 0xba, 0x99, 0xc9, 0x2c, 0x21, 0xb8, 0xd4, 0x8a, 
  0x09, 0x26, 0xb1, 0x52, 0x5b, 0x0f, 0x1c, 0x5e, 0xa7, 0x37, 0xb9, 0xe6, 
  0xcf, 0xbd, 0x81, 0xa6, 0xfd, 0xbd, 0xc1, 0x8f, 0x31, 0xca, 0xcb, 0xd3, 
  0x55, 0xdf, 0xc4, 0xb0, 0xb2, 0x91, 0xc1, 0x4b, 0xb3, 0xd6, 0xcc, 0x01, 
  0x17, 0xde, 0x09, 0x90, 0xb3, 0x8b, 0xa0, 0x58, 0xc8, 0xb0, 0xad, 0x5d, 
  0xc6, 0x47, 0xd1, 0xbf, 0x1f, 0xe3, 0xfe, 0xb1, 0xe7, 0xcb, 0x34, 0x5c, 
  0x4b, 0x9d, 0x2b, 0xc2, 0x75, 0xf4, 0x23, 0x02, 0x3c, 0xdb, 0xa2, 0xcd, 
  0x48, 0xe4, 0xfd, 0x52, 0xf2, 0xa9, 0xff, 0x03, 0x17, 0xcd, 0x25, 0x15, 
  0xca, 0x4f, 0xf2, 0x3c, 0x2b, 0xee, 0x5f, 0x47, 0xb6, 0xf5, 0xaf, 0x3f, 
  0x2b, 0x2e, 0x7f, 0x05, 0xd2, 0xf1, 0x65, 0xb8, 0xd8, 0x0b, 0xef, 0xb5, 
  0xef, 0x69, 0x0b, 0xa2, 0x1b, 0xea, 0xb5, 0xe4, 0x26, 0xca, 0x59, 0xf3, 
  0xdf, 0x0e, 0x19, 0x2f, 0x21, 0xa8, 0x63, 0xcc, 0xd3, 0x7f, 0x28, 0x17, 
  0x63, 0xd4, 0xb7, 0xdc, 0x22, 0x51, 0xea, 0x34, 0x48, 0x23, 0x79, 0x2a, 
  0xf2, 0x2e, 0xf9, 0x9c, 0x11, 0x10, 0x10, 0x67, 0xed, 0xae, 0xa9, 0xce, 
  0xd6, 0x52, 0x70, 0x2a, 0xe1, 0xb1, 0x0b, 0x1f, 0x62, 0x32, 0x0b, 0x15, 
  0x62, 0x0e, 0x2a, 0x11, 0x31, 0x4f, 0x40, 0xd8, 0xde, 0x1c, 0x7b, 0xea, 
  0x1c, 0x0e, 0x1c, 0xd6, 0x7f, 0xe2, 0x8d, 0x15, 0x03, 0x1f, 0x5b, 0x48, 
  0xb5, 0x3d, 0x60, 0xd3, 0xe7, 0x35, 0x0c, 0x65, 0x3f, 0xd2, 0x3a, 0xef, 
  0xf1, 0xff, 0x8d, 0xea, 0x24, 0x26, 0x57, 0x26, 0xea, 0xd8, 0x6b, 0x22, 
  0x1a, 0x1a, 0xd4, 0xac, 0xf8, 0xe7, 0x36, 0xff, 0xa3, 0xd7, 0x13, 0x15, 
  0x43, 0xf1, 0xde, 0x81, 0x8c, 0x15, 0x4a, 0x92, 0x5b, 0xa4, 0x5e, 0x9f, 
  0x29, 0x1c, 0x8f, 0xaf, 0xc2, 0x2f, 0xa7, 0xb6, 0xd7, 0x84, 0xb2, 0x91, 
  0xa1, 0x04, 0x6d, 0xce, 0x2e, 0xda, 0xe3, 0x2f, 0x3a, 0x95, 0x38, 0xa6, 
  0xd4, 0xf1, 0x9d, 0xb6, 0x18, 0xb0, 0x9d, 0xf8, 0xdb, 0x15, 0xb3, 0x62, 
  0xe1, 0x94, 0x8d, 0xbd, 0x82, 0xf0, 0xf4, 0xb9, 0x3f, 0xa0, 0xc3, 0x0c, 
  0xc7, 0x59, 0x44, 0x31, 0x11, 0x63, 0xae, 0x00, 0x33, 0x0a, 0x39, 0xcb, 
  0x14, 0xaf, 0xf3, 0xdc, 0xe0, 0x00, 0x01, 0xa8, 0x05, 0x4d, 0x23, 0x1c, 
  0x0b, 0x02, 0x0d, 0xff, 0x37, 0x36, 0x1c, 0xf1, 0x3f, 0x12, 0xed, 0xdb, 
  0x1f, 0xd4, 0xd5, 0xea, 0xe2, 0xdb, 0x61, 0x17, 0x77, 0x2b, 0x18, 0x1f, 
  0x14, 0xc3, 0x69, 0x42, 0x2d, 0xc7, 0xe0, 0x45, 0xfc, 0x3d, 0xd7, 0xf2, 
  0x51, 0xf6, 0x7f, 0x13, 0x21, 0x6e, 0x5d, 0xbd, 0x07, 0xc3, 0x2a, 0x20, 
  0xaf, 0x3a, 0x44, 0x3c, 0xde, 0xe1, 0x11, 0x42, 0xd0, 0x2c, 0xb5, 0xe7, 
  0x46, 0x14, 0xfe, 0x22, 0xea, 0xc5, 0x68, 0x08, 0xb1, 0xcc, 0xd7, 0xc2, 
  0xf7, 0x48, 0xe0, 0x07, 0xee, 0x7f, 0x30, 0x2b, 0x00, 0x48, 0xbb, 0x3c, 
  0x2f, 0x06, 0x32, 0x2e, 0x17, 0x40, 0xcb, 0xdf, 0xaf, 0x4c, 0x42, 0xfe, 
  0x27, 0x38, 0x07, 0xfc, 0x19, 0x05, 0x05, 0xfe, 0x17, 0x41, 0x96, 0xea, 
  0x64, 0xdd, 0x1d, 0xd5, 0x2a, 0xa8, 0xee, 0xd5, 0xb9, 0x1e, 0xf6, 0xc3, 
  0xd9, 0x01, 0x47, 0x20, 0x6a, 0xe0, 0xb4, 0x46, 0xb3, 0x3e, 0x26, 0x09, 
  0x39, 0xd3, 0x2e, 0x30, 0xb1, 0x1c, 0x6a, 0xf3, 0x04, 0x6a, 0x7f, 0xee, 
  0xd0, 0x1c, 0xe3, 0xf2, 0x1e, 0xb2, 0x63, 0x25, 0xc6, 0x54, 0xda, 0x3b, 
  0x1f, 0x3a, 0xcb, 0xa8, 0x2d, 0x14, 0x11, 0x13, 0xe8, 0x1a, 0x28, 0x3d, 
  0xe1, 0x19, 0x0c, 0xf8, 0x08, 0x12, 0x1f, 0xf0, 0xe4, 0x10, 0xc3, 0x7f, 
  0xdd, 0xdc, 0x3d, 0x68, 0xda, 0x47, 0x47, 0x22, 0xc1, 0xb7, 0x2c, 0xd0, 
  0x09, 0xd8, 0xf0, 0x59, 0xe9, 0x17, 0x13, 0x4d, 0x6e, 0x29, 0x8b, 0x60, 
  0xb6, 0x88, 0xe2, 0xbd, 0x4c, 0xd7, 0xe2, 0xe5, 0xea, 0xe6, 0x06, 0xc9, 
  0xec, 0xd1, 0x4a, 0xe3, 0xe5, 0x24, 0xbc, 0xff, 0xdc, 0x5d, 0x02, 0xd2, 
  0x19, 0xb0, 0xbf, 0x0d, 0x71, 0x01, 0x2d, 0x55, 0x79, 0x19, 0xcf, 0xbf, 
  0x32, 0xbb, 0x25, 0xa8, 0x3f, 0x20, 0x55, 0xd8, 0x27, 0x3b, 0xb9, 0xf4, 
  0x0d, 0x0c, 0x2f, 0xfb, 0xe8, 0x18, 0xe2, 0x26, 0x10, 0x6e, 0x53, 0x67, 
  0xe2, 0x81, 0xe3, 0x06, 0x33, 0x7b, 0x23, 0x47, 0x2d, 0x3b, 0xc8, 0x16, 
  0x34, 0x28, 0x16, 0x01, 0xdc, 0x35, 0xa8, 0x5b, 0xfc, 0x1c, 0x20, 0xf8, 
  0x31, 0x31, 0x29, 0xf2, 0x40, 0xfa, 0xe0, 0x17, 0xba, 0xe0, 0xa2, 0xd1, 
  0xd2, 0xa2, 0x40, 0xde, 0x18, 0xea, 0xdd, 0x58, 0xbb, 0xb3, 0x47, 0x75, 
  0x05, 0xed, 0x4c, 0xe8, 0x1e, 0x1b, 0x0c, 0x3f, 0xed, 0x3d, 0x30, 0xf8, 
  0x6f, 0x04, 0xaf, 0xf3, 0x59, 0xf6, 0xea, 0xc3, 0x9f, 0x19, 0x02, 0x1d, 
  0x04, 0x01, 0xc4, 0x4b, 0xf1, 0xda, 0x11, 0x2d, 0xae, 0xd1, 0xe1, 0x81, 
  0xf0, 0x2d, 0xdb, 0xe7, 0xc2, 0xf1, 0x71, 0xd4, 0xca, 0xad, 0xa8, 0xcd, 
  0x65, 0x59, 0x1d, 0xd7, 0xb7, 0xd7, 0xd3, 0xa6, 0x66, 0xb9, 0xc3, 0x31, 
  0xed, 0x40, 0xb9, 0x64, 0x14, 0x43, 0x67, 0xde, 0x0c, 0x9d, 0x55, 0x47, 
  0xd3, 0xbb, 0x66, 0xef, 0x48, 0x99, 0xb2, 0xc4, 0x71, 0x26, 0x2e, 0x3c, 
  0x69, 0xaf, 0x13, 0x38, 0x0c, 0xe3, 0x3c, 0xf8, 0xfc, 0xe9, 0x11, 0xf1, 
  0x3f, 0xd9, 0xc5, 0xec, 0x64, 0x5b, 0x14, 0xed, 0xea, 0x03, 0x78, 0xc0, 
  0x51, 0x40, 0x08, 0x4c, 0x7f, 0x2c, 0x59, 0x4b, 0x43, 0x3d, 0xbb, 0x76, 
  0xfb, 0xeb, 0x5f, 0xde, 0x0b, 0x33, 0x00, 0xa4, 0xad, 0x07, 0xb6, 0xe4, 
  0x33, 0x86, 0x00, 0xf4, 0x46, 0xe7, 0x36, 0x01, 0xee, 0xc6, 0xf9, 0xe5, 
  0x5b, 0x11, 0x36, 0xc6, 0xad, 0x26, 0x68, 0x17, 0x5d, 0xb9, 0x7c, 0x98, 
  0x1d, 0x5c, 0x37, 0x7d, 0xe9, 0x65, 0x23, 0x7f, 0xc7, 0xfb, 0x11, 0x6e, 
  0xd5, 0xff, 0x23, 0x2e, 0x02, 0x78, 0xd6, 0xb8, 0x0c, 0x2a, 0x34, 0xc5, 
  0x29, 0x2b, 0x4b, 0xe4, 0xc5, 0x21, 0xc3, 0xe9, 0xee, 0x61, 0x34, 0xd8, 
  0xc6, 0x0c, 0xfa, 0x4c, 0x2d, 0x7f, 0xcd, 0xd1, 0x08, 0x28, 0xf7, 0x0c, 
  0x4d, 0x55, 0x24, 0xa5, 0xb6, 0x25, 0x15, 0x30, 0xf9, 0x0a, 0xf6, 0xbc, 
  0xf2, 0xe8, 0xd1, 0x17, 0x39, 0x88, 0x34, 0x1c, 0xa3, 0xe1, 0x5a, 0xc2, 
  0x28, 0x34, 0x12, 0x2a, 0xb3, 0x95, 0xa1, 0x35, 0xd7, 0x0e, 0xd3, 0xd8, 
  0xc5, 0x34, 0x3f, 0x45, 0xca, 0xfd, 0xff, 0xff, 0x04, 0x00, 0x00, 0x00, 
  0x80, 0x00, 0x00, 0x00, 0xbc, 0x03, 0x00, 0x00, 0x43, 0x04, 0x00, 0x00, 
  0xaa, 0x05, 0x00, 0x00, 0xe0, 0x01, 0x00, 0x00, 0x43, 0x05, 0x00, 0x00, 
  0x0c, 0xfe, 0xff, 0xff, 0xca, 0x01, 0x00, 0x00, 0xea, 0x00, 0x00, 0x00, 
  0x95, 0x03, 0x00, 0x00, 0x06, 0x01, 0x00, 0x00, 0xbd, 0x01, 0x00, 0x00, 
  0xef, 0x04, 0x00, 0x00, 0x0a, 0x05, 0x00, 0x00, 0x64, 0x03, 0x00, 0x00, 
  0xd1, 0x03, 0x00, 0x00, 0x4e, 0x01, 0x00, 0x00, 0x71, 0xff, 0xff, 0xff, 
  0xd3, 0x03, 0x00, 0x00, 0x54, 0xfd, 0xff, 0xff, 0xb2, 0x01, 0x00, 0x00, 
  0x6f, 0x04, 0x00, 0x00, 0x5c, 0x00, 0x00, 0x00, 0x32, 0xfe, 0xff, 0xff, 
  0x39, 0x01, 0x00, 0x00, 0x97, 0x04, 0x00, 0x00, 0xdc, 0x03, 0x00, 0x00, 
  0x19, 0x03, 0x00, 0x00, 0xc5, 0x03, 0x00, 0x00, 0xa2, 0x00, 0x00, 0x00, 
  0xe9, 0xff, 0xff, 0xff, 0x12, 0x07, 0x00, 0x00, 0x1d, 0x04, 0x00, 0x00, 
  0x56, 0xfe, 0xff, 0xff, 0x04, 0x00, 0x00, 0x00, 0xe0, 0x00, 0x00, 0x00, 
  0x18, 0x62, 0x5d, 0xe6, 0xe3, 0xea, 0xac, 0xaf, 0x20, 0x33, 0xe2, 0xc9, 
  0x39, 0x30, 0x81, 0x13, 0xe3, 0x02, 0x12, 0x11, 0xe2, 0xc2, 0x1c, 0xf0, 
  0x3b, 0x59, 0xf4, 0x4b, 0xc9, 0xa7, 0x08, 0x8b, 0xcf, 0x61, 0x3b, 0x3b, 
  0x7f, 0xdd, 0x2d, 0x57, 0xf5, 0xc0, 0xb0, 0x40, 0xba, 0x4e, 0xf1, 0xa3, 
  0x89, 0x26, 0xd2, 0xe2, 0x98, 0x1c, 0xbf, 0x17, 0xa0, 0xa1, 0x9f, 0x92, 
  0xe9, 0xa6, 0x2b, 0xda, 0x25, 0x56, 0xeb, 0xf6, 0x1f, 0xcc, 0x37, 0x25, 
  0x40, 0x81, 0x13, 0x85, 0x5c, 0x10, 0x1e, 0x19, 0xe3, 0xfd, 0xcc, 0x3f, 
  0xd2, 0xbe, 0x0a, 0xa6, 0x00, 0xd7, 0x6d, 0x97, 0x51, 0x58, 0x9f, 0x9e, 
  0x45, 0x0f, 0x9e, 0x5d, 0xd0, 0x44, 0x1d, 0x2e, 0x0b, 0x58, 0x5c, 0x41, 
  0xcd, 0x87, 0x12, 0xbf, 0x03, 0x90, 0x16, 0x95, 0xd1, 0x26, 0x04, 0xad, 
  0x09, 0x56, 0x96, 0x0d, 0x40, 0xbb, 0x81, 0x28, 0x40, 0xd0, 0xf6, 0x81, 
  0x2f, 0x47, 0xa8, 0x0d, 0x37, 0x9f, 0xde, 0x31, 0x4c, 0xb3, 0x44, 0x5c, 
  0xa1, 0x66, 0xc5, 0xf9, 0x71, 0xb4, 0x45, 0xb3, 0x39, 0x26, 0x96, 0xc0, 
  0xbd, 0xe8, 0xde, 0x6e, 0xa3, 0xcc, 0xec, 0x99, 0xd8, 0xe2, 0x2a, 0x04, 
  0x67, 0xdb, 0xc0, 0x81, 0xa9, 0xb0, 0xca, 0xbe, 0x85, 0x6a, 0xf8, 0xd9, 
  0x65, 0x6a, 0x49, 0x44, 0xe5, 0xb8, 0x81, 0x69, 0x26, 0xf7, 0x8c, 0xea, 
  0xa8, 0xf1, 0x16, 0xda, 0xb8, 0x23, 0x5a, 0xad, 0x93, 0x85, 0xf2, 0x34, 
  0x27, 0xfd, 0x75, 0x6e, 0x46, 0x9b, 0x5c, 0xab, 0x01, 0x4e, 0xeb, 0xf7, 
  0xb0, 0x95, 0x44, 0xcf, 0xe8, 0x9c, 0xcd, 0x7f, 0x42, 0xff, 0xff, 0xff, 
  0x04, 0x00, 0x00, 0x00, 0x1c, 0x00, 0x00, 0x00, 0xd3, 0x00, 0x00, 0x00, 
  0x53, 0x01, 0x00, 0x00, 0x1c, 0x00, 0x00, 0x00, 0xfd, 0xff, 0xff, 0xff, 
  0xcb, 0x00, 0x00, 0x00, 0xd2, 0xfd, 0xff, 0xff, 0x09, 0xfe, 0xff, 0xff, 
  0x38, 0xff, 0xff, 0xff, 0x3c, 0xff, 0xff, 0xff, 0x0f, 0x00, 0x00, 0x00, 
  0x4d, 0x4c, 0x49, 0x52, 0x20, 0x43, 0x6f, 0x6e, 0x76, 0x65, 0x72, 0x74, 
  0x65, 0x64, 0x2e, 0x00, 0x01, 0x00, 0x00, 0x00, 0x14, 0x00, 0x00, 0x00, 
  0x00, 0x00, 0x0e, 0x00, 0x18, 0x00, 0x14, 0x00, 0x10, 0x00, 0x0c, 0x00, 
  0x08, 0x00, 0x04, 0x00, 0x0e, 0x00, 0x00, 0x00, 0x14, 0x00, 0x00, 0x00, 
  0x1c, 0x00, 0x00, 0x00, 0x38, 0x01, 0x00, 0x00, 0x3c, 0x01, 0x00, 0x00, 
  0x40, 0x01, 0x00, 0x00, 0x04, 0x00, 0x00, 0x00, 0x6d, 0x61, 0x69, 0x6e, 
  0x00, 0x00, 0x00, 0x00, 0x04, 0x00, 0x00, 0x00, 0xe0, 0x00, 0x00, 0x00, 
  0x98, 0x00, 0x00, 0x00, 0x50, 0x00, 0x00, 0x00, 0x14, 0x00, 0x00, 0x00, 
  0x00, 0x00, 0x0e, 0x00, 0x1a, 0x00, 0x14, 0x00, 0x10, 0x00, 0x0c, 0x00, 
  0x0b, 0x00, 0x04, 0x00, 0x0e, 0x00, 0x00, 0x00, 0x1c, 0x00, 0x00, 0x00, 
  0x00, 0x00, 0x00, 0x09, 0x1c, 0x00, 0x00, 0x00, 0x20, 0x00, 0x00, 0x00, 
  0x01, 0x00, 0x00, 0x00, 0x00, 0x00, 0x06, 0x00, 0x08, 0x00, 0x04, 0x00, 
  0x06, 0x00, 0x00, 0x00, 0x00, 0x00, 0x80, 0x3f, 0x01, 0x00, 0x00, 0x00, 
  0x0a, 0x00, 0x00, 0x00, 0x01, 0x00, 0x00, 0x00, 0x09, 0x00, 0x00, 0x00, 
  0xca, 0xff, 0xff, 0xff, 0x14, 0x00, 0x00, 0x00, 0x00, 0x00, 0x00, 0x08, 
  0x10, 0x00, 0x00, 0x00, 0x14, 0x00, 0x00, 0x00, 0x04, 0x00, 0x04, 0x00, 
  0x04, 0x00, 0x00, 0x00, 0x01, 0x00, 0x00, 0x00, 0x09, 0x00, 0x00, 0x00, 
  0x03, 0x00, 0x00, 0x00, 0x08, 0x00, 0x00, 0x00, 0x02, 0x00, 0x00, 0x00, 
  0x01, 0x00, 0x00, 0x00, 0x00, 0x00, 0x0e, 0x00, 0x14, 0x00, 0x00, 0x00, 
  0x10, 0x00, 0x0c, 0x00, 0x0b, 0x00, 0x04, 0x00, 0x0e, 0x00, 0x00, 0x00, 
  0x10, 0x00, 0x00, 0x00, 0x00, 0x00, 0x00, 0x08, 0x10, 0x00, 0x00, 0x00, 
  0x14, 0x00, 0x00, 0x00, 0xba, 0xff, 0xff, 0xff, 0x00, 0x00, 0x00, 0x01, 
  0x01, 0x00, 0x00, 0x00, 0x08, 0x00, 0x00, 0x00, 0x03, 0x00, 0x00, 0x00, 
  0x07, 0x00, 0x00, 0x00, 0x04, 0x00, 0x00, 0x00, 0x03, 0x00, 0x00, 0x00, 
  0x00, 0x00, 0x0e, 0x00, 0x16, 0x00, 0x00, 0x00, 0x10, 0x00, 0x0c, 0x00, 
  0x0b, 0x00, 0x04, 0x00, 0x0e, 0x00, 0x00, 0x00, 0x18, 0x00, 0x00, 0x00, 
  0x00, 0x00, 0x00, 0x08, 0x18, 0x00, 0x00, 0x00, 0x1c, 0x00, 0x00, 0x00, 
  0x00, 0x00, 0x06, 0x00, 0x08, 0x00, 0x07, 0x00, 0x06, 0x00, 0x00, 0x00, 
  0x00, 0x00, 0x00, 0x01, 0x01, 0x00, 0x00, 0x00, 0x07, 0x00, 0x00, 0x00, 
  0x03, 0x00, 0x00, 0x00, 0x00, 0x00, 0x00, 0x00, 0x06, 0x00, 0x00, 0x00, 
  0x05, 0x00, 0x00, 0x00, 0x01, 0x00, 0x00, 0x00, 0x0a, 0x00, 0x00, 0x00, 
  0x01, 0x00, 0x00, 0x00, 0x00, 0x00, 0x00, 0x00, 0x0b, 0x00, 0x00, 0x00, 
  0x78, 0x0e, 0x00, 0x00, 0xb8, 0x0d, 0x00, 0x00, 0xf4, 0x0c, 0x00, 0x00, 
  0x20, 0x0b, 0x00, 0x00, 0x44, 0x09, 0x00, 0x00, 0xf0, 0x05, 0x00, 0x00, 
  0x94, 0x02, 0x00, 0x00, 0xe0, 0x01, 0x00, 0x00, 0x24, 0x01, 0x00, 0x00, 
  0x80, 0x00, 0x00, 0x00, 0x04, 0x00, 0x00, 0x00, 0xca, 0xf1, 0xff, 0xff, 
  0x00, 0x00, 0x00, 0x01, 0x18, 0x00, 0x00, 0x00, 0x20, 0x00, 0x00, 0x00, 
  0x3c, 0x00, 0x00, 0x00, 0x0b, 0x00, 0x00, 0x00, 0x00, 0x00, 0x00, 0x09, 
  0x50, 0x00, 0x00, 0x00, 0x02, 0x00, 0x00, 0x00, 0xff, 0xff, 0xff, 0xff, 
  0x07, 0x00, 0x00, 0x00, 0xb4, 0xf1, 0xff, 0xff, 0x08, 0x00, 0x00, 0x00, 
  0x10, 0x00, 0x00, 0x00, 0x01, 0x00, 0x00, 0x00, 0x80, 0xff, 0xff, 0xff, 
  0xff, 0xff, 0xff, 0xff, 0x01, 0x00, 0x00, 0x00, 0x00, 0x00, 0x80, 0x3b, 
  0x1b, 0x00, 0x00, 0x00, 0x53, 0x74, 0x61, 0x74, 0x65, 0x66, 0x75, 0x6c, 
  0x50, 0x61, 0x72, 0x74, 0x69, 0x74, 0x69, 0x6f, 0x6e, 0x65, 0x64, 0x43, 
  0x61, 0x6c, 0x6c, 0x5f, 0x31, 0x3a, 0x30, 0x00, 0x02, 0x00, 0x00, 0x00, 
  0x01, 0x00, 0x00, 0x00, 0x07, 0x00, 0x00, 0x00, 0x42, 0xf2, 0xff, 0xff, 
  0x00, 0x00, 0x00, 0x01, 0x18, 0x00, 0x00, 0x00, 0x20, 0x00, 0x00, 0x00, 
  0x40, 0x00, 0x00, 0x00, 0x0a, 0x00, 0x00, 0x00, 0x00, 0x00, 0x00, 0x09, 
  0x78, 0x00, 0x00, 0x00, 0x02, 0x00, 0x00, 0x00, 0xff, 0xff, 0xff, 0xff, 
  0x07, 0x00, 0x00, 0x00, 0x2c, 0xf2, 0xff, 0xff, 0x08, 0x00, 0x00, 0x00, 
  0x14, 0x00, 0x00, 0x00, 0x01, 0x00, 0x00, 0x00, 0xf9, 0xff, 0xff, 0xff, 
  0xff, 0xff, 0xff, 0xff, 0x00, 0x00, 0x00, 0x00, 0x01, 0x00, 0x00, 0x00, 
  0xa2, 0x23, 0x09, 0x3e, 0x3c, 0x00, 0x00, 0x00, 0x73, 0x65, 0x71, 0x75, 
  0x65, 0x6e, 0x74, 0x69, 0x61, 0x6c, 0x5f, 0x31, 0x2f, 0x64, 0x65, 0x6e, 
  0x73, 0x65, 0x5f, 0x32, 0x5f, 0x31, 0x2f, 0x4d, 0x61, 0x74, 0x4d, 0x75, 
  0x6c, 0x3b, 0x73, 0x65, 0x71, 0x75, 0x65, 0x6e, 0x74, 0x69, 0x61, 0x6c, 
  0x5f, 0x31, 0x2f, 0x64, 0x65, 0x6e, 0x73, 0x65, 0x5f, 0x32, 0x5f, 0x31, 
  0x2f, 0x42, 0x69, 0x61, 0x73, 0x41, 0x64, 0x64, 0x00, 0x00, 0x00, 0x00, 
  0x02, 0x00, 0x00, 0x00, 0x01, 0x00, 0x00, 0x00, 0x07, 0x00, 0x00, 0x00, 
  0xe2, 0xf2, 0xff, 0xff, 0x00, 0x00, 0x00, 0x01, 0x18, 0x00, 0x00, 0x00, 
  0x20, 0x00, 0x00, 0x00, 0x3c, 0x00, 0x00, 0x00, 0x09, 0x00, 0x00, 0x00, 
  0x00, 0x00, 0x00, 0x09, 0x90, 0x00, 0x00, 0x00, 0x02, 0x00, 0x00, 0x00, 
  0xff, 0xff, 0xff, 0xff, 0x20, 0x00, 0x00, 0x00, 0xcc, 0xf2, 0xff, 0xff, 
  0x08, 0x00, 0x00, 0x00, 0x10, 0x00, 0x00, 0x00, 0x01, 0x00, 0x00, 0x00, 
  0x80, 0xff, 0xff, 0xff, 0xff, 0xff, 0xff, 0xff, 0x01, 0x00, 0x00, 0x00, 
  0x5b, 0x38, 0x04, 0x3d, 0x58, 0x00, 0x00, 0x00, 0x73, 0x65, 0x71, 0x75, 
  0x65, 0x6e, 0x74, 0x69, 0x61, 0x6c, 0x5f, 0x31, 0x2f, 0x64, 0x65, 0x6e, 
  0x73, 0x65, 0x5f, 0x31, 0x5f, 0x32, 0x2f, 0x4d, 0x61, 0x74, 0x4d, 0x75, 
  0x6c, 0x3b, 0x73, 0x65, 0x71, 0x75, 0x65, 0x6e, 0x74, 0x69, 0x61, 0x6c, 
  0x5f, 0x31, 0x2f, 0x64, 0x65, 0x6e, 0x73, 0x65, 0x5f, 0x31, 0x5f, 0x32, 
  0x2f, 0x52, 0x65, 0x6c, 0x75, 0x3b, 0x73, 0x65, 0x71, 0x75, 0x65, 0x6e, 
  0x74, 0x69, 0x61, 0x6c, 0x5f, 0x31, 0x2f, 0x64, 0x65, 0x6e, 0x73, 0x65, 
  0x5f, 0x31, 0x5f, 0x32, 0x2f, 0x42, 0x69, 0x61, 0x73, 0x41, 0x64, 0x64, 
  0x00, 0x00, 0x00, 0x00, 0x02, 0x00, 0x00, 0x00, 0x01, 0x00, 0x00, 0x00, 
  0x20, 0x00, 0x00, 0x00, 0x9a, 0xf3, 0xff, 0xff, 0x00, 0x00, 0x00, 0x01, 
  0x18, 0x00, 0x00, 0x00, 0x20, 0x00, 0x00, 0x00, 0x3c, 0x00, 0x00, 0x00, 
  0x08, 0x00, 0x00, 0x00, 0x00, 0x00, 0x00, 0x09, 0x88, 0x00, 0x00, 0x00, 
  0x02, 0x00, 0x00, 0x00, 0xff, 0xff, 0xff, 0xff, 0x40, 0x00, 0x00, 0x00, 
  0x84, 0xf3, 0xff, 0xff, 0x08, 0x00, 0x00, 0x00, 0x10, 0x00, 0x00, 0x00, 
  0x01, 0x00, 0x00, 0x00, 0x80, 0xff, 0xff, 0xff, 0xff, 0xff, 0xff, 0xff, 
  0x01, 0x00, 0x00, 0x00, 0x64, 0x22, 0xc4, 0x3c, 0x52, 0x00, 0x00, 0x00, 
  0x73, 0x65, 0x71, 0x75, 0x65, 0x6e, 0x74, 0x69, 0x61, 0x6c, 0x5f, 0x31, 
  0x2f, 0x64, 0x65, 0x6e, 0x73, 0x65, 0x5f, 0x31, 0x2f, 0x4d, 0x61, 0x74, 
  0x4d, 0x75, 0x6c, 0x3b, 0x73, 0x65, 0x71, 0x75, 0x65, 0x6e, 0x74, 0x69, 
  0x61, 0x6c, 0x5f, 0x31, 0x2f, 0x64, 0x65, 0x6e, 0x73, 0x65, 0x5f, 0x31, 
  0x2f, 0x52, 0x65, 0x6c, 0x75, 0x3b, 0x73, 0x65, 0x71, 0x75, 0x65, 0x6e, 
  0x74, 0x69, 0x61, 0x6c, 0x5f, 0x31, 0x2f, 0x64, 0x65, 0x6e, 0x73, 0x65, 
  0x5f, 0x31, 0x2f, 0x42, 0x69, 0x61, 0x73, 0x41, 0x64, 0x64, 0x00, 0x00, 
  0x02, 0x00, 0x00, 0x00, 0x01, 0x00, 0x00, 0x00, 0x40, 0x00, 0x00, 0x00, 
  0x06, 0xf5, 0xff, 0xff, 0x00, 0x00, 0x00, 0x01, 0x14, 0x00, 0x00, 0x00, 
  0x28, 0x03, 0x00, 0x00, 0x07, 0x00, 0x00, 0x00, 0x00, 0x00, 0x00, 0x09, 
  0x34, 0x03, 0x00, 0x00, 0x24, 0xf4, 0xff, 0xff, 0x08, 0x00, 0x00, 0x00, 
  0x0c, 0x02, 0x00, 0x00, 0x40, 0x00, 0x00, 0x00, 0x00, 0x00, 0x00, 0x00, 
  0x00, 0x00, 0x00, 0x00, 0x00, 0x00, 0x00, 0x00, 0x00, 0x00, 0x00, 0x00, 
  0x00, 0x00, 0x00, 0x00, 0x00, 0x00, 0x00, 0x00, 0x00, 0x00, 0x00, 0x00, 
  0x00, 0x00, 0x00, 0x00, 0x00, 0x00, 0x00, 0x00, 0x00, 0x00, 0x00, 0x00, 
  0x00, 0x00, 0x00, 0x00, 0x00, 0x00, 0x00, 0x00, 0x00, 0x00, 0x00, 0x00, 
  0x00, 0x00, 0x00, 0x00, 0x00, 0x00, 0x00, 0x00, 0x00, 0x00, 0x00, 0x00, 
  0x00, 0x00, 0x00, 0x00, 0x00, 0x00, 0x00, 0x00, 0x00, 0x00, 0x00, 0x00, 
  0x00, 0x00, 0x00, 0x00, 0x00, 0x00, 0x00, 0x00, 0x00, 0x00, 0x00, 0x00, 
  0x00, 0x00, 0x00, 0x00, 0x00, 0x00, 0x00, 0x00, 0x00, 0x00, 0x00, 0x00, 
  0x00, 0x00, 0x00, 0x00, 0x00, 0x00, 0x00, 0x00, 0x00, 0x00, 0x00, 0x00, 
  0x00, 0x00, 0x00, 0x00, 0x00, 0x00, 0x00, 0x00, 0x00, 0x00, 0x00, 0x00, 
  0x00, 0x00, 0x00, 0x00, 0x00, 0x00, 0x00, 0x00, 0x00, 0x00, 0x00, 0x00, 
  0x00, 0x00, 0x00, 0x00, 0x00, 0x00, 0x00, 0x00, 0x00, 0x00, 0x00, 0x00, 
  0x00, 0x00, 0x00, 0x00, 0x00, 0x00, 0x00, 0x00, 0x00, 0x00, 0x00, 0x00, 
  0x00, 0x00, 0x00, 0x00, 0x00, 0x00, 0x00, 0x00, 0x00, 0x00, 0x00, 0x00, 
  0x00, 0x00, 0x00, 0x00, 0x00, 0x00, 0x00, 0x00, 0x00, 0x00, 0x00, 0x00, 
  0x00, 0x00, 0x00, 0x00, 0x00, 0x00, 0x00, 0x00, 0x00, 0x00, 0x00, 0x00, 
  0x00, 0x00, 0x00, 0x00, 0x00, 0x00, 0x00, 0x00, 0x00, 0x00, 0x00, 0x00, 
  0x00, 0x00, 0x00, 0x00, 0x00, 0x00, 0x00, 0x00, 0x00, 0x00, 0x00, 0x00, 
  0x00, 0x00, 0x00, 0x00, 0x00, 0x00, 0x00, 0x00, 0x00, 0x00, 0x00, 0x00, 
  0x00, 0x00, 0x00, 0x00, 0x00, 0x00, 0x00, 0x00, 0x00, 0x00, 0x00, 0x00, 
  0x00, 0x00, 0x00, 0x00, 0x00, 0x00, 0x00, 0x00, 0x00, 0x00, 0x00, 0x00, 
  0x00, 0x00, 0x00, 0x00, 0x00, 0x00, 0x00, 0x00, 0x00, 0x00, 0x00, 0x00, 
  0x00, 0x00, 0x00, 0x00, 0x00, 0x00, 0x00, 0x00, 0x00, 0x00, 0x00, 0x00, 
  0x00, 0x00, 0x00, 0x00, 0x00, 0x00, 0x00, 0x00, 0x00, 0x00, 0x00, 0x00, 
  0x00, 0x00, 0x00, 0x00, 0x00, 0x00, 0x00, 0x00, 0x00, 0x00, 0x00, 0x00, 
  0x00, 0x00, 0x00, 0x00, 0x00, 0x00, 0x00, 0x00, 0x00, 0x00, 0x00, 0x00, 
  0x00, 0x00, 0x00, 0x00, 0x00, 0x00, 0x00, 0x00, 0x00, 0x00, 0x00, 0x00, 
  0x00, 0x00, 0x00, 0x00, 0x00, 0x00, 0x00, 0x00, 0x00, 0x00, 0x00, 0x00, 
  0x00, 0x00, 0x00, 0x00, 0x00, 0x00, 0x00, 0x00, 0x00, 0x00, 0x00, 0x00, 
  0x00, 0x00, 0x00, 0x00, 0x00, 0x00, 0x00, 0x00, 0x00, 0x00, 0x00, 0x00, 
  0x00, 0x00, 0x00, 0x00, 0x00, 0x00, 0x00, 0x00, 0x00, 0x00, 0x00, 0x00, 
  0x00, 0x00, 0x00, 0x00, 0x00, 0x00, 0x00, 0x00, 0x00, 0x00, 0x00, 0x00, 
  0x00, 0x00, 0x00, 0x00, 0x00, 0x00, 0x00, 0x00, 0x00, 0x00, 0x00, 0x00, 
  0x00, 0x00, 0x00, 0x00, 0x00, 0x00, 0x00, 0x00, 0x00, 0x00, 0x00, 0x00, 
  0x00, 0x00, 0x00, 0x00, 0x00, 0x00, 0x00, 0x00, 0x00, 0x00, 0x00, 0x00, 
  0x00, 0x00, 0x00, 0x00, 0x00, 0x00, 0x00, 0x00, 0x00, 0x00, 0x00, 0x00, 
  0x00, 0x00, 0x00, 0x00, 0x00, 0x00, 0x00, 0x00, 0x00, 0x00, 0x00, 0x00, 
  0x00, 0x00, 0x00, 0x00, 0x00, 0x00, 0x00, 0x00, 0x00, 0x00, 0x00, 0x00, 
  0x00, 0x00, 0x00, 0x00, 0x00, 0x00, 0x00, 0x00, 0x00, 0x00, 0x00, 0x00, 
  0x00, 0x00, 0x00, 0x00, 0x00, 0x00, 0x00, 0x00, 0x00, 0x00, 0x00, 0x00, 
  0x00, 0x00, 0x00, 0x00, 0x00, 0x00, 0x00, 0x00, 0x00, 0x00, 0x00, 0x00, 
  0x00, 0x00, 0x00, 0x00, 0x00, 0x00, 0x00, 0x00, 0x00, 0x00, 0x00, 0x00, 
  0x00, 0x00, 0x00, 0x00, 0x00, 0x00, 0x00, 0x00, 0x40, 0x00, 0x00, 0x00, 
  0x93, 0x1e, 0x66, 0x3b, 0xa6, 0x91, 0x27, 0x3b, 0x2c, 0x76, 0x13, 0x3b, 
  0x70, 0x26, 0x17, 0x3b, 0x24, 0x32, 0x2e, 0x3b, 0x31, 0x9d, 0x17, 0x3b, 
  0xed, 0x70, 0x2b, 0x3b, 0x99, 0xef, 0x60, 0x3b, 0x12, 0xf1, 0x06, 0x3b, 
  0x86, 0x05, 0x63, 0x3b, 0xaa, 0x04, 0x5b, 0x3b, 0x6b, 0x9a, 0x7f, 0x3b, 
  0x99, 0xe3, 0x1c, 0x3b, 0x86, 0xde, 0x2b, 0x3b, 0x6e, 0x6d, 0x53, 0x3b, 
  0x15, 0xb0, 0x06, 0x3b, 0xf6, 0xf2, 0x33, 0x3b, 0x88, 0xec, 0x3e, 0x3b, 
  0xe4, 0x9d, 0x3c, 0x3b, 0x42, 0x5d, 0x22, 0x3b, 0xa1, 0x2a, 0x36, 0x3b, 
  0xe8, 0x2c, 0x24, 0x3b, 0xa8, 0xb8, 0x5d, 0x3b, 0xb9, 0xfa, 0x1f, 0x3b, 
  0x2e, 0x9e, 0x60, 0x3b, 0xdb, 0xa6, 0x89, 0x3b, 0x82, 0x1a, 0x1f, 0x3b, 
  0x1b, 0xda, 0x67, 0x3b, 0x65, 0x4d, 0x64, 0x3b, 0x65, 0xca, 0x74, 0x3b, 
  0x19, 0xe6, 0x75, 0x3b, 0xe6, 0xa7, 0x5d, 0x3b, 0x93, 0x8a, 0x34, 0x3b, 
  0xa1, 0x70, 0x7d, 0x3b, 0x85, 0x5e, 0x84, 0x3b, 0xda, 0x52, 0x24, 0x3b, 
  0xb5, 0x0c, 0x31, 0x3b, 0x57, 0x44, 0x7c, 0x3b, 0xbe, 0xed, 0x50, 0x3b, 
  0xf9, 0x4e, 0x63, 0x3b, 0x4f, 0xce, 0x13, 0x3b, 0xa6, 0xbf, 0x25, 0x3b, 
  0x47, 0x0f, 0x59, 0x3b, 0x99, 0x2b, 0x17, 0x3b, 0x50, 0x9f, 0x5f, 0x3b, 
  0x63, 0x98, 0x2f, 0x3b, 0x41, 0x34, 0x1e, 0x3b, 0x06, 0xd5, 0x78, 0x3b, 
  0x74, 0x0a, 0x20, 0x3b, 0x48, 0x3b, 0x41, 0x3b, 0xf2, 0x46, 0x12, 0x3b, 
  0x0e, 0xdc, 0x3e, 0x3b, 0xd1, 0xb0, 0x1a, 0x3b, 0xdb, 0x6f, 0x68, 0x3b, 
  0x64, 0x8c, 0x3c, 0x3b, 0x81, 0x96, 0x28, 0x3b, 0x04, 0xb3, 0x2c, 0x3b, 
  0x0f, 0x0d, 0x32, 0x3b, 0x52, 0x85, 0x2a, 0x3b, 0x58, 0xb2, 0x17, 0x3b, 
  0xc1, 0xc5, 0x63, 0x3b, 0x3f, 0x27, 0x12, 0x3b, 0x73, 0x6f, 0x74, 0x3b, 
  0x54, 0x4e, 0x52, 0x3b, 0x12, 0x00, 0x00, 0x00, 0x74, 0x66, 0x6c, 0x2e, 
  0x70, 0x73, 0x65, 0x75, 0x64, 0x6f, 0x5f, 0x71, 0x63, 0x6f, 0x6e, 0x73, 
  0x74, 0x35, 0x00, 0x00, 0x02, 0x00, 0x00, 0x00, 0x40, 0x00, 0x00, 0x00, 
  0x20, 0x00, 0x00, 0x00, 0x5e, 0xf8, 0xff, 0xff, 0x00, 0x00, 0x00, 0x01, 
  0x14, 0x00, 0x00, 0x00, 0x24, 0x03, 0x00, 0x00, 0x06, 0x00, 0x00, 0x00, 
  0x00, 0x00, 0x00, 0x02, 0x30, 0x03, 0x00, 0x00, 0x7c, 0xf7, 0xff, 0xff, 
  0x08, 0x00, 0x00, 0x00, 0x08, 0x02, 0x00, 0x00, 0x40, 0x00, 0x00, 0x00, 
  0x00, 0x00, 0x00, 0x00, 0x00, 0x00, 0x00, 0x00, 0x00, 0x00, 0x00, 0x00, 
  0x00, 0x00, 0x00, 0x00, 0x00, 0x00, 0x00, 0x00, 0x00, 0x00, 0x00, 0x00, 
  0x00, 0x00, 0x00, 0x00, 0x00, 0x00, 0x00, 0x00, 0x00, 0x00, 0x00, 0x00, 
  0x00, 0x00, 0x00, 0x00, 0x00, 0x00, 0x00, 0x00, 0x00, 0x00, 0x00, 0x00, 
  0x00, 0x00, 0x00, 0x00, 0x00, 0x00, 0x00, 0x00, 0x00, 0x00, 0x00, 0x00, 
  0x00, 0x00, 0x00, 0x00, 0x00, 0x00, 0x00, 0x00, 0x00, 0x00, 0x00, 0x00, 
  0x00, 0x00, 0x00, 0x00, 0x00, 0x00, 0x00, 0x00, 0x00, 0x00, 0x00, 0x00, 
  0x00, 0x00, 0x00, 0x00, 0x00, 0x00, 0x00, 0x00, 0x00, 0x00, 0x00, 0x00, 
  0x00, 0x00, 0x00, 0x00, 0x00, 0x00, 0x00, 0x00, 0x00, 0x00, 0x00, 0x00, 
  0x00, 0x00, 0x00, 0x00, 0x00, 0x00, 0x00, 0x00, 0x00, 0x00, 0x00, 0x00, 
  0x00, 0x00, 0x00, 0x00, 0x00, 0x00, 0x00, 0x00, 0x00, 0x00, 0x00, 0x00, 
  0x00, 0x00, 0x00, 0x00, 0x00, 0x00, 0x00, 0x00, 0x00, 0x00, 0x00, 0x00, 
  0x00, 0x00, 0x00, 0x00, 0x00, 0x00, 0x00, 0x00, 0x00, 0x00, 0x00, 0x00, 
  0x00, 0x00, 0x00, 0x00, 0x00, 0x00, 0x00, 0x00, 0x00, 0x00, 0x00, 0x00, 
  0x00, 0x00, 0x00, 0x00, 0x00, 0x00, 0x00, 0x00, 0x00, 0x00, 0x00, 0x00, 
  0x00, 0x00, 0x00, 0x00, 0x00, 0x00, 0x00, 0x00, 0x00, 0x00, 0x00, 0x00, 
  0x00, 0x00, 0x00, 0x00, 0x00, 0x00, 0x00, 0x00, 0x00, 0x00, 0x00, 0x00, 
  0x00, 0x00, 0x00, 0x00, 0x00, 0x00, 0x00, 0x00, 0x00, 0x00, 0x00, 0x00, 
  0x00, 0x00, 0x00, 0x00, 0x00, 0x00, 0x00, 0x00, 0x00, 0x00, 0x00, 0x00, 
  0x00, 0x00, 0x00, 0x00, 0x00, 0x00, 0x00, 0x00, 0x00, 0x00, 0x00, 0x00, 
  0x00, 0x00, 0x00, 0x00, 0x00, 0x00, 0x00, 0x00, 0x00, 0x00, 0x00, 0x00, 
  0x00, 0x00, 0x00, 0x00, 0x00, 0x00, 0x00, 0x00, 0x00, 0x00, 0x00, 0x00, 
  0x00, 0x00, 0x00, 0x00, 0x00, 0x00, 0x00, 0x00, 0x00, 0x00, 0x00, 0x00, 
  0x00, 0x00, 0x00, 0x00, 0x00, 0x00, 0x00, 0x00, 0x00, 0x00, 0x00, 0x00, 
  0x00, 0x00, 0x00, 0x00, 0x00, 0x00, 0x00, 0x00, 0x00, 0x00, 0x00, 0x00, 
  0x00, 0x00, 0x00, 0x00, 0x00, 0x00, 0x00, 0x00, 0x00, 0x00, 0x00, 0x00, 
  0x00, 0x00, 0x00, 0x00, 0x00, 0x00, 0x00, 0x00, 0x00, 0x00, 0x00, 0x00, 
  0x00, 0x00, 0x00, 0x00, 0x00, 0x00, 0x00, 0x00, 0x00, 0x00, 0x00, 0x00, 
  0x00, 0x00, 0x00, 0x00, 0x00, 0x00, 0x00, 0x00, 0x00, 0x00, 0x00, 0x00, 
  0x00, 0x00, 0x00, 0x00, 0x00, 0x00, 0x00, 0x00, 0x00, 0x00, 0x00, 0x00, 
  0x00, 0x00, 0x00, 0x00, 0x00, 0x00, 0x00, 0x00, 0x00, 0x00, 0x00, 0x00, 
  0x00, 0x00, 0x00, 0x00, 0x00, 0x00, 0x00, 0x00, 0x00, 0x00, 0x00, 0x00, 
  0x00, 0x00, 0x00, 0x00, 0x00, 0x00, 0x00, 0x00, 0x00, 0x00, 0x00, 0x00, 
  0x00, 0x00, 0x00, 0x00, 0x00, 0x00, 0x00, 0x00, 0x00, 0x00, 0x00, 0x00, 
  0x00, 0x00, 0x00, 0x00, 0x00, 0x00, 0x00, 0x00, 0x00, 0x00, 0x00, 0x00, 
  0x00, 0x00, 0x00, 0x00, 0x00, 0x00, 0x00, 0x00, 0x00, 0x00, 0x00, 0x00, 
  0x00, 0x00, 0x00, 0x00, 0x00, 0x00, 0x00, 0x00, 0x00, 0x00, 0x00, 0x00, 
  0x00, 0x00, 0x00, 0x00, 0x00, 0x00, 0x00, 0x00, 0x00, 0x00, 0x00, 0x00, 
  0x00, 0x00, 0x00, 0x00, 0x00, 0x00, 0x00, 0x00, 0x00, 0x00, 0x00, 0x00, 
  0x00, 0x00, 0x00, 0x00, 0x00, 0x00, 0x00, 0x00, 0x00, 0x00, 0x00, 0x00, 
  0x00, 0x00, 0x00, 0x00, 0x00, 0x00, 0x00, 0x00, 0x00, 0x00, 0x00, 0x00, 
  0x00, 0x00, 0x00, 0x00, 0x00, 0x00, 0x00, 0x00, 0x00, 0x00, 0x00, 0x00, 
  0x00, 0x00, 0x00, 0x00, 0x00, 0x00, 0x00, 0x00, 0x40, 0x00, 0x00, 0x00, 
  0xdb, 0xfb, 0x02, 0x39, 0x9f, 0xc2, 0xbe, 0x38, 0xbd, 0xde, 0xa7, 0x38, 
  0xb1, 0x11, 0xac, 0x38, 0xe7, 0x4d, 0xc6, 0x38, 0xe1, 0x98, 0xac, 0x38, 
  0x17, 0x2b, 0xc3, 0x38, 0x8b, 0x08, 0x00, 0x39, 0x0f, 0x9e, 0x99, 0x38, 
  0x74, 0x38, 0x01, 0x39, 0x7c, 0x54, 0xf9, 0x38, 0x39, 0x7d, 0x11, 0x39, 
  0x2e, 0x9a, 0xb2, 0x38, 0xdb, 0xa7, 0xc3, 0x38, 0x4f, 0xb0, 0xf0, 0x38, 
  0x13, 0x54, 0x99, 0x38, 0x8f, 0xda, 0xcc, 0x38, 0xf9, 0x58, 0xd9, 0x38, 
  0x96, 0xb8, 0xd6, 0x38, 0xd4, 0xd5, 0xb8, 0x38, 0xcb, 0x60, 0xcf, 0x38, 
  0xa5, 0xe5, 0xba, 0x38, 0x3f, 0x68, 0xfc, 0x38, 0xcc, 0x1e, 0xb6, 0x38, 
  0x66, 0xb4, 0xff, 0x38, 0xdc, 0xb3, 0x1c, 0x39, 0x8d, 0x1f, 0xb5, 0x38, 
  0x50, 0xf8, 0x03, 0x39, 0x13, 0xf3, 0x01, 0x39, 0xaa, 0x55, 0x0b, 0x39, 
  0x26, 0xf7, 0x0b, 0x39, 0x2c, 0x55, 0xfc, 0x38, 0x28, 0x87, 0xcd, 0x38, 
  0x02, 0x42, 0x10, 0x39, 0x5d, 0xb0, 0x16, 0x39, 0xd8, 0x10, 0xbb, 0x38, 
  0x94, 0x8d, 0xc9, 0x38, 0x15, 0x97, 0x0f, 0x39, 0x17, 0xd8, 0xed, 0x38, 
  0x42, 0x62, 0x01, 0x39, 0x13, 0x43, 0xa8, 0x38, 0x20, 0xb0, 0xbc, 0x38, 
  0xb5, 0x19, 0xf7, 0x38, 0x91, 0x17, 0xac, 0x38, 0x42, 0x92, 0xfe, 0x38, 
  0xbb, 0xe5, 0xc7, 0x38, 0x6e, 0x19, 0xb4, 0x38, 0x93, 0xa2, 0x0d, 0x39, 
  0xb4, 0x30, 0xb6, 0x38, 0x7b, 0xf9, 0xdb, 0x38, 0x8c, 0x85, 0xa6, 0x38, 
  0x37, 0x46, 0xd9, 0x38, 0x83, 0x19, 0xb0, 0x38, 0x8d, 0x4d, 0x04, 0x39, 
  0xaa, 0xa4, 0xd6, 0x38, 0x94, 0xeb, 0xbf, 0x38, 0xc1, 0x99, 0xc4, 0x38, 
  0x69, 0xb1, 0xca, 0x38, 0xe0, 0x1e, 0xc2, 0x38, 0xf6, 0xb0, 0xac, 0x38, 
  0xde, 0xa5, 0x01, 0x39, 0x76, 0x61, 0xa6, 0x38, 0xe6, 0x21, 0x0b, 0x39, 
  0x79, 0x69, 0xef, 0x38, 0x12, 0x00, 0x00, 0x00, 0x74, 0x66, 0x6c, 0x2e, 
  0x70, 0x73, 0x65, 0x75, 0x64, 0x6f, 0x5f, 0x71, 0x63, 0x6f, 0x6e, 0x73, 
  0x74, 0x34, 0x00, 0x00, 0x01, 0x00, 0x00, 0x00, 0x40, 0x00, 0x00, 0x00, 
  0xae, 0xfb, 0xff, 0xff, 0x00, 0x00, 0x00, 0x01, 0x14, 0x00, 0x00, 0x00, 
  0xa8, 0x01, 0x00, 0x00, 0x05, 0x00, 0x00, 0x00, 0x00, 0x00, 0x00, 0x09, 
  0xb4, 0x01, 0x00, 0x00, 0xcc, 0xfa, 0xff, 0xff, 0x08, 0x00, 0x00, 0x00, 
  0x0c, 0x01, 0x00, 0x00, 0x20, 0x00, 0x00, 0x00, 0x00, 0x00, 0x00, 0x00, 
  0x00, 0x00, 0x00, 0x00, 0x00, 0x00, 0x00, 0x00, 0x00, 0x00, 0x00, 0x00, 
  0x00, 0x00, 0x00, 0x00, 0x00, 0x00, 0x00, 0x00, 0x00, 0x00, 0x00, 0x00, 
  0x00, 0x00, 0x00, 0x00, 0x00, 0x00, 0x00, 0x00, 0x00, 0x00, 0x00, 0x00, 
  0x00, 0x00, 0x00, 0x00, 0x00, 0x00, 0x00, 0x00, 0x00, 0x00, 0x00, 0x00, 
  0x00, 0x00, 0x00, 0x00, 0x00, 0x00, 0x00, 0x00, 0x00, 0x00, 0x00, 0x00, 
  0x00, 0x00, 0x00, 0x00, 0x00, 0x00, 0x00, 0x00, 0x00, 0x00, 0x00, 0x00, 
  0x00, 0x00, 0x00, 0x00, 0x00, 0x00, 0x00, 0x00, 0x00, 0x00, 0x00, 0x00, 
  0x00, 0x00, 0x00, 0x00, 0x00, 0x00, 0x00, 0x00, 0x00, 0x00, 0x00, 0x00, 
  0x00, 0x00, 0x00, 0x00, 0x00, 0x00, 0x00, 0x00, 0x00, 0x00, 0x00, 0x00, 
  0x00, 0x00, 0x00, 0x00, 0x00, 0x00, 0x00, 0x00, 0x00, 0x00, 0x00, 0x00, 
  0x00, 0x00, 0x00, 0x00, 0x00, 0x00, 0x00, 0x00, 0x00, 0x00, 0x00, 0x00, 
  0x00, 0x00, 0x00, 0x00, 0x00, 0x00, 0x00, 0x00, 0x00, 0x00, 0x00, 0x00, 
  0x00, 0x00, 0x00, 0x00, 0x00, 0x00, 0x00, 0x00, 0x00, 0x00, 0x00, 0x00, 
  0x00, 0x00, 0x00, 0x00, 0x00, 0x00, 0x00, 0x00, 0x00, 0x00, 0x00, 0x00, 
  0x00, 0x00, 0x00, 0x00, 0x00, 0x00, 0x00, 0x00, 0x00, 0x00, 0x00, 0x00, 
  0x00, 0x00, 0x00, 0x00, 0x00, 0x00, 0x00, 0x00, 0x00, 0x00, 0x00, 0x00, 
  0x00, 0x00, 0x00, 0x00, 0x00, 0x00, 0x00, 0x00, 0x00, 0x00, 0x00, 0x00, 
  0x00, 0x00, 0x00, 0x00, 0x00, 0x00, 0x00, 0x00, 0x00, 0x00, 0x00, 0x00, 
  0x00, 0x00, 0x00, 0x00, 0x00, 0x00, 0x00, 0x00, 0x00, 0x00, 0x00, 0x00, 
  0x00, 0x00, 0x00, 0x00, 0x00, 0x00, 0x00, 0x00, 0x00, 0x00, 0x00, 0x00, 
  0x00, 0x00, 0x00, 0x00, 0x00, 0x00, 0x00, 0x00, 0x00, 0x00, 0x00, 0x00, 
  0x00, 0x00, 0x00, 0x00, 0x20, 0x00, 0x00, 0x00, 0xf3, 0xd3, 0x33, 0x3b, 
  0x17, 0xb5, 0x8d, 0x3b, 0x11, 0x01, 0x41, 0x3b, 0x5b, 0x30, 0x32, 0x3b, 
  0xc5, 0xef, 0x57, 0x3b, 0x67, 0x1e, 0x05, 0x3b, 0x58, 0x0c, 0x41, 0x3b, 
  0xba, 0xf1, 0x3a, 0x3b, 0xd7, 0x1e, 0x24, 0x3b, 0x80, 0x74, 0x8b, 0x3b, 
  0xa8, 0x73, 0x7c, 0x3b, 0xb6, 0x84, 0x4c, 0x3b, 0xa0, 0x38, 0x3f, 0x3b, 
  0x93, 0x5b, 0x50, 0x3b, 0xf7, 0x29, 0x68, 0x3b, 0x32, 0x86, 0x30, 0x3b, 
  0x3f, 0x58, 0x31, 0x3b, 0xe2, 0xb1, 0x36, 0x3b, 0x5f, 0xfe, 0x0c, 0x3b, 
  0x47, 0xd1, 0x34, 0x3b, 0x60, 0xca, 0x3c, 0x3b, 0xb9, 0x0d, 0x33, 0x3b, 
  0x78, 0x41, 0x05, 0x3b, 0x27, 0xaa, 0x42, 0x3b, 0xfb, 0xdb, 0x44, 0x3b, 
  0xc3, 0xdb, 0x52, 0x3b, 0xb2, 0x82, 0x54, 0x3b, 0x7c, 0x8b, 0x4e, 0x3b, 
  0x71, 0x65, 0x60, 0x3b, 0x8c, 0xe9, 0x40, 0x3b, 0x2e, 0xbd, 0x37, 0x3b, 
  0xee, 0x28, 0x5f, 0x3b, 0x12, 0x00, 0x00, 0x00, 0x74, 0x66, 0x6c, 0x2e, 
  0x70, 0x73, 0x65, 0x75, 0x64, 0x6f, 0x5f, 0x71, 0x63, 0x6f, 0x6e, 0x73, 
  0x74, 0x33, 0x00, 0x00, 0x02, 0x00, 0x00, 0x00, 0x20, 0x00, 0x00, 0x00, 
  0x40, 0x00, 0x00, 0x00, 0x86, 0xfd, 0xff, 0xff, 0x00, 0x00, 0x00, 0x01, 
  0x14, 0x00, 0x00, 0x00, 0xa4, 0x01, 0x00, 0x00, 0x04, 0x00, 0x00, 0x00, 
  0x00, 0x00, 0x00, 0x02, 0xb0, 0x01, 0x00, 0x00, 0xa4, 0xfc, 0xff, 0xff, 
  0x08, 0x00, 0x00, 0x00, 0x08, 0x01, 0x00, 0x00, 0x20, 0x00, 0x00, 0x00, 
  0x00, 0x00, 0x00, 0x00, 0x00, 0x00, 0x00, 0x00, 0x00, 0x00, 0x00, 0x00, 
  0x00, 0x00, 0x00, 0x00, 0x00, 0x00, 0x00, 0x00, 0x00, 0x00, 0x00, 0x00, 
  0x00, 0x00, 0x00, 0x00, 0x00, 0x00, 0x00, 0x00, 0x00, 0x00, 0x00, 0x00, 
  0x00, 0x00, 0x00, 0x00, 0x00, 0x00, 0x00, 0x00, 0x00, 0x00, 0x00, 0x00, 
  0x00, 0x00, 0x00, 0x00, 0x00, 0x00, 0x00, 0x00, 0x00, 0x00, 0x00, 0x00, 
  0x00, 0x00, 0x00, 0x00, 0x00, 0x00, 0x00, 0x00, 0x00, 0x00, 0x00, 0x00, 
  0x00, 0x00, 0x00, 0x00, 0x00, 0x00, 0x00, 0x00, 0x00, 0x00, 0x00, 0x00, 
  0x00, 0x00, 0x00, 0x00, 0x00, 0x00, 0x00, 0x00, 0x00, 0x00, 0x00, 0x00, 
  0x00, 0x00, 0x00, 0x00, 0x00, 0x00, 0x00, 0x00, 0x00, 0x00, 0x00, 0x00, 
  0x00, 0x00, 0x00, 0x00, 0x00, 0x00, 0x00, 0x00, 0x00, 0x00, 0x00, 0x00, 
  0x00, 0x00, 0x00, 0x00, 0x00, 0x00, 0x00, 0x00, 0x00, 0x00, 0x00, 0x00, 
  0x00, 0x00, 0x00, 0x00, 0x00, 0x00, 0x00, 0x00, 0x00, 0x00, 0x00, 0x00, 
  0x00, 0x00, 0x00, 0x00, 0x00, 0x00, 0x00, 0x00, 0x00, 0x00, 0x00, 0x00, 
  0x00, 0x00, 0x00, 0x00, 0x00, 0x00, 0x00, 0x00, 0x00, 0x00, 0x00, 0x00, 
  0x00, 0x00, 0x00, 0x00, 0x00, 0x00, 0x00, 0x00, 0x00, 0x00, 0x00, 0x00, 
  0x00, 0x00, 0x00, 0x00, 0x00, 0x00, 0x00, 0x00, 0x00, 0x00, 0x00, 0x00, 
  0x00, 0x00, 0x00, 0x00, 0x00, 0x00, 0x00, 0x00, 0x00, 0x00, 0x00, 0x00, 
  0x00, 0x00, 0x00, 0x00, 0x00, 0x00, 0x00, 0x00, 0x00, 0x00, 0x00, 0x00, 
  0x00, 0x00, 0x00, 0x00, 0x00, 0x00, 0x00, 0x00, 0x00, 0x00, 0x00, 0x00, 
  0x00, 0x00, 0x00, 0x00, 0x00, 0x00, 0x00, 0x00, 0x00, 0x00, 0x00, 0x00, 
  0x00, 0x00, 0x00, 0x00, 0x00, 0x00, 0x00, 0x00, 0x00, 0x00, 0x00, 0x00, 
  0x00, 0x00, 0x00, 0x00, 0x20, 0x00, 0x00, 0x00, 0x6e, 0xc6, 0x89, 0x38, 
  0x5e, 0x23, 0xd9, 0x38, 0xbf, 0xde, 0x93, 0x38, 0xf6, 0x84, 0x88, 0x38, 
  0x95, 0x70, 0xa5, 0x38, 0x52, 0xfa, 0x4b, 0x38, 0x62, 0xe7, 0x93, 0x38, 
  0x30, 0x3a, 0x8f, 0x38, 0x52, 0x7b, 0x7b, 0x38, 0xdc, 0xaf, 0xd5, 0x38, 
  0x77, 0x6a, 0xc1, 0x38, 0x15, 0xb1, 0x9c, 0x38, 0x0b, 0x81, 0x92, 0x38, 
  0x1a, 0xa2, 0x9f, 0x38, 0x51, 0xdf, 0xb1, 0x38, 0x75, 0x3e, 0x87, 0x38, 
  0x63, 0xdf, 0x87, 0x38, 0xbc, 0xf8, 0x8b, 0x38, 0x63, 0x0b, 0x58, 0x38, 
  0x85, 0x88, 0x8a, 0x38, 0x4e, 0xa4, 0x90, 0x38, 0x8f, 0x2e, 0x89, 0x38, 
  0x0d, 0x30, 0x4c, 0x38, 0x6c, 0x24, 0x95, 0x38, 0xde, 0xd2, 0x96, 0x38, 
  0x95, 0x8c, 0xa1, 0x38, 0x9d, 0xd0, 0xa2, 0x38, 0x8a, 0x3e, 0x9e, 0x38, 
  0xd0, 0xeb, 0xab, 0x38, 0xba, 0xcc, 0x93, 0x38, 0x86, 0xc5, 0x8c, 0x38, 
  0x51, 0xf9, 0xaa, 0x38, 0x12, 0x00, 0x00, 0x00, 0x74, 0x66, 0x6c, 0x2e, 
  0x70, 0x73, 0x65, 0x75, 0x64, 0x6f, 0x5f, 0x71, 0x63, 0x6f, 0x6e, 0x73, 
  0x74, 0x32, 0x00, 0x00, 0x01, 0x00, 0x00, 0x00, 0x20, 0x00, 0x00, 0x00, 
  0x56, 0xff, 0xff, 0xff, 0x00, 0x00, 0x00, 0x01, 0x14, 0x00, 0x00, 0x00, 
  0x78, 0x00, 0x00, 0x00, 0x03, 0x00, 0x00, 0x00, 0x00, 0x00, 0x00, 0x09, 
  0x84, 0x00, 0x00, 0x00, 0x74, 0xfe, 0xff, 0xff, 0x08, 0x00, 0x00, 0x00, 
  0x40, 0x00, 0x00, 0x00, 0x07, 0x00, 0x00, 0x00, 0x00, 0x00, 0x00, 0x00, 
  0x00, 0x00, 0x00, 0x00, 0x00, 0x00, 0x00, 0x00, 0x00, 0x00, 0x00, 0x00, 
  0x00, 0x00, 0x00, 0x00, 0x00, 0x00, 0x00, 0x00, 0x00, 0x00, 0x00, 0x00, 
  0x00, 0x00, 0x00, 0x00, 0x00, 0x00, 0x00, 0x00, 0x00, 0x00, 0x00, 0x00, 
  0x00, 0x00, 0x00, 0x00, 0x00, 0x00, 0x00, 0x00, 0x00, 0x00, 0x00, 0x00, 
  0x00, 0x00, 0x00, 0x00, 0x07, 0x00, 0x00, 0x00, 0x7a, 0xf4, 0xae, 0x3b, 
  0x95, 0xae, 0x8b, 0x3b, 0xfb, 0x13, 0xb3, 0x3b, 0xf1, 0xd2, 0x96, 0x3b, 
  0x22, 0x72, 0x9b, 0x3b, 0xe2, 0x7e, 0x65, 0x3b, 0x82, 0xd6, 0x85, 0x3b, 
  0x12, 0x00, 0x00, 0x00, 0x74, 0x66, 0x6c, 0x2e, 0x70, 0x73, 0x65, 0x75, 
  0x64, 0x6f, 0x5f, 0x71, 0x63, 0x6f, 0x6e, 0x73, 0x74, 0x31, 0x00, 0x00, 
  0x02, 0x00, 0x00, 0x00, 0x07, 0x00, 0x00, 0x00, 0x20, 0x00, 0x00, 0x00, 
  0x00, 0x00, 0x16, 0x00, 0x1c, 0x00, 0x18, 0x00, 0x17, 0x00, 0x10, 0x00, 
  0x0c, 0x00, 0x08, 0x00, 0x00, 0x00, 0x00, 0x00, 0x00, 0x00, 0x07, 0x00, 
  0x16, 0x00, 0x00, 0x00, 0x00, 0x00, 0x00, 0x01, 0x14, 0x00, 0x00, 0x00, 
  0x78, 0x00, 0x00, 0x00, 0x02, 0x00, 0x00, 0x00, 0x00, 0x00, 0x00, 0x02, 
  0x84, 0x00, 0x00, 0x00, 0x34, 0xff, 0xff, 0xff, 0x08, 0x00, 0x00, 0x00, 
  0x40, 0x00, 0x00, 0x00, 0x07, 0x00, 0x00, 0x00, 0x00, 0x00, 0x00, 0x00, 
  0x00, 0x00, 0x00, 0x00, 0x00, 0x00, 0x00, 0x00, 0x00, 0x00, 0x00, 0x00, 
  0x00, 0x00, 0x00, 0x00, 0x00, 0x00, 0x00, 0x00, 0x00, 0x00, 0x00, 0x00, 
  0x00, 0x00, 0x00, 0x00, 0x00, 0x00, 0x00, 0x00, 0x00, 0x00, 0x00, 0x00, 
  0x00, 0x00, 0x00, 0x00, 0x00, 0x00, 0x00, 0x00, 0x00, 0x00, 0x00, 0x00, 
  0x00, 0x00, 0x00, 0x00, 0x07, 0x00, 0x00, 0x00, 0x25, 0xb9, 0x34, 0x39, 
  0x89, 0x49, 0x10, 0x39, 0x73, 0xfb, 0x38, 0x39, 0xf0, 0xcb, 0x1b, 0x39, 
  0x24, 0x92, 0x20, 0x39, 0xe4, 0x0f, 0xed, 0x38, 0x23, 0x40, 0x0a, 0x39, 
  0x11, 0x00, 0x00, 0x00, 0x74, 0x66, 0x6c, 0x2e, 0x70, 0x73, 0x65, 0x75, 
  0x64, 0x6f, 0x5f, 0x71, 0x63, 0x6f, 0x6e, 0x73, 0x74, 0x00, 0x00, 0x00, 
  0x01, 0x00, 0x00, 0x00, 0x07, 0x00, 0x00, 0x00, 0x00, 0x00, 0x16, 0x00, 
  0x20, 0x00, 0x1c, 0x00, 0x1b, 0x00, 0x14, 0x00, 0x10, 0x00, 0x0c, 0x00, 
  0x00, 0x00, 0x00, 0x00, 0x08, 0x00, 0x07, 0x00, 0x16, 0x00, 0x00, 0x00, 
  0x00, 0x00, 0x00, 0x01, 0x18, 0x00, 0x00, 0x00, 0x2c, 0x00, 0x00, 0x00, 
  0x4c, 0x00, 0x00, 0x00, 0x01, 0x00, 0x00, 0x00, 0x00, 0x00, 0x00, 0x09, 
  0x60, 0x00, 0x00, 0x00, 0x02, 0x00, 0x00, 0x00, 0xff, 0xff, 0xff, 0xff, 
  0x20, 0x00, 0x00, 0x00, 0x0c, 0x00, 0x0c, 0x00, 0x00, 0x00, 0x00, 0x00, 
  0x08, 0x00, 0x04, 0x00, 0x0c, 0x00, 0x00, 0x00, 0x08, 0x00, 0x00, 0x00, 
  0x14, 0x00, 0x00, 0x00, 0x01, 0x00, 0x00, 0x00, 0xfe, 0xff, 0xff, 0xff, 
  0xff, 0xff, 0xff, 0xff, 0x00, 0x00, 0x00, 0x00, 0x01, 0x00, 0x00, 0x00, 
  0x0b, 0xb7, 0x11, 0x3d, 0x1a, 0x00, 0x00, 0x00, 0x73, 0x65, 0x72, 0x76, 
  0x69, 0x6e, 0x67, 0x5f, 0x64, 0x65, 0x66, 0x61, 0x75, 0x6c, 0x74, 0x5f, 
  0x66, 0x65, 0x61, 0x74, 0x75, 0x72, 0x65, 0x73, 0x3a, 0x30, 0x00, 0x00, 
  0x02, 0x00, 0x00, 0x00, 0x01, 0x00, 0x00, 0x00, 0x20, 0x00, 0x00, 0x00, 
  0x02, 0x00, 0x00, 0x00, 0x24, 0x00, 0x00, 0x00, 0x04, 0x00, 0x00, 0x00, 
  0xf0, 0xff, 0xff, 0xff, 0x19, 0x00, 0x00, 0x00, 0x02, 0x00, 0x00, 0x00, 
  0x00, 0x00, 0x00, 0x19, 0x0c, 0x00, 0x10, 0x00, 0x0f, 0x00, 0x00, 0x00, 
  0x08, 0x00, 0x04, 0x00, 0x0c, 0x00, 0x00, 0x00, 0x09, 0x00, 0x00, 0x00, 
  0x04, 0x00, 0x00, 0x00, 0x00, 0x00, 0x00, 0x09, 
};
const unsigned int model_data_len = 9584;
